[PAD]	0
[UNK]	0
[BOS]	0
[EOS]	0
[MASK]	0
▁t	-0
▁a	-1
he	-2
in	-3
re	-4
▁the	-5
▁o	-6
er	-7
on	-8
at	-9
▁s	-10
en	-11
▁c	-12
es	-13
▁w	-14
nd	-15
is	-16
or	-17
it	-18
▁p	-19
ed	-20
▁of	-21
al	-22
▁b	-23
▁f	-24
an	-25
▁in	-26
ing	-27
ar	-28
▁m	-29
ou	-30
▁and	-31
▁to	-32
ic	-33
ion	-34
▁d	-35
ro	-36
le	-37
as	-38
▁h	-39
ent	-40
▁th	-41
ct	-42
▁e	-43
il	-44
▁re	-45
▁T	-46
ve	-47
▁l	-48
om	-49
st	-50
▁n	-51
ly	-52
▁be	-53
▁A	-54
ation	-55
▁is	-56
im	-57
ol	-58
se	-59
▁g	-60
id	-61
ce	-62
▁S	-63
▁C	-64
ra	-65
ut	-66
et	-67
ur	-68
ot	-69
▁I	-70
ch	-71
▁for	-72
ow	-73
ig	-74
▁that	-75
▁on	-76
▁u	-77
ver	-78
▁st	-79
▁The	-80
ir	-81
ul	-82
▁M	-83
am	-84
▁pro	-85
ay	-86
el	-87
▁as	-88
her	-89
ith	-90
▁con	-91
ad	-92
▁1	-93
▁P	-94
▁an	-95
▁y	-96
▁are	-97
▁with	-98
▁(	-99
▁wh	-100
if	-101
▁or	-102
▁al	-103
ment	-104
ter	-105
▁it	-106
od	-107
op	-108
▁H	-109
ies	-110
▁B	-111
ist	-112
▁de	-113
th	-114
ge	-115
ers	-116
ere	-117
ate	-118
ect	-119
▁ex	-120
os	-121
res	-122
ity	-123
ab	-124
est	-125
▁W	-126
us	-127
ill	-128
▁D	-129
ess	-130
um	-131
▁com	-132
ore	-133
ld	-134
▁E	-135
and	-136
▁by	-137
▁-	-138
ri	-139
em	-140
▁he	-141
▁F	-142
rom	-143
▁su	-144
▁at	-145
nt	-146
▁R	-147
▁you	-148
ain	-149
ive	-150
▁N	-151
▁was	-152
pp	-153
▁v	-154
ac	-155
ud	-156
ant	-157
▁ha	-158
▁2	-159
qu	-160
igh	-161
ke	-162
iv	-163
▁from	-164
oc	-165
▁G	-166
ure	-167
▁ne	-168
▁se	-169
▁L	-170
un	-171
ort	-172
▁not	-173
▁ch	-174
▁r	-175
00	-176
ical	-177
▁have	-178
ial	-179
▁can	-180
▁sh	-181
art	-182
▁le	-183
▁J	-184
▁O	-185
▁sp	-186
og	-187
▁en	-188
ould	-189
▁In	-190
ight	-191
▁wor	-192
▁this	-193
rou	-194
all	-195
pt	-196
du	-197
gh	-198
ther	-199
▁ab	-200
our	-201
ard	-202
ich	-203
ions	-204
ated	-205
ome	-206
▁"	-207
▁U	-208
ell	-209
ear	-210
out	-211
per	-212
ost	-213
▁pl	-214
ia	-215
ine	-216
▁their	-217
ff	-218
▁im	-219
▁int	-220
▁dis	-221
ans	-222
▁we	-223
act	-224
ew	-225
▁us	-226
age	-227
ast	-228
▁which	-229
▁k	-230
ec	-231
pl	-232
▁were	-233
iz	-234
ru	-235
▁cont	-236
ak	-237
ous	-238
ag	-239
ide	-240
are	-241
▁whe	-242
ap	-243
▁all	-244
▁they	-245
vel	-246
ations	-247
cc	-248
▁Th	-249
ong	-250
▁ad	-251
ary	-252
▁more	-253
orm	-254
ater	-255
ib	-256
▁inc	-257
end	-258
ip	-259
ult	-260
ust	-261
▁19	-262
▁per	-263
▁comp	-264
▁res	-265
▁has	-266
ood	-267
▁do	-268
▁but	-269
ire	-270
so	-271
▁other	-272
ks	-273
ual	-274
▁cl	-275
ress	-276
▁j	-277
▁will	-278
▁K	-279
ence	-280
ance	-281
ild	-282
ry	-283
ase	-284
▁man	-285
▁ev	-286
ep	-287
able	-288
reat	-289
ach	-290
▁who	-291
▁Ch	-292
ord	-293
▁ar	-294
▁me	-295
ass	-296
ction	-297
▁app	-298
▁imp	-299
ount	-300
au	-301
▁one	-302
ace	-303
▁St	-304
ign	-305
▁also	-306
▁“	-307
▁un	-308
ind	-309
ents	-310
ish	-311
▁his	-312
ber	-313
ice	-314
▁so	-315
ens	-316
ame	-317
av	-318
▁part	-319
▁sc	-320
ose	-321
ake	-322
ory	-323
▁comm	-324
▁out	-325
▁tim	-326
form	-327
▁about	-328
ian	-329
ition	-330
▁pre	-331
ors	-332
ub	-333
▁It	-334
olog	-335
▁te	-336
▁sy	-337
very	-338
ound	-339
▁pe	-340
▁rec	-341
▁been	-342
▁year	-343
ces	-344
ite	-345
one	-346
▁them	-347
ree	-348
▁stud	-349
▁your	-350
ang	-351
ack	-352
).	-353
ok	-354
▁up	-355
▁This	-356
▁than	-357
▁some	-358
▁3	-359
▁there	-360
▁V	-361
ates	-362
own	-363
▁bec	-364
ue	-365
ons	-366
ile	-367
▁ag	-368
▁may	-369
▁had	-370
▁its	-371
▁des	-372
ike	-373
mer	-374
ric	-375
▁go	-376
ays	-377
ough	-378
▁tra	-379
▁into	-380
ail	-381
▁qu	-382
ings	-383
nder	-384
lect	-385
ject	-386
ople	-387
▁ro	-388
ie	-389
rough	-390
low	-391
▁work	-392
iff	-393
ities	-394
velop	-395
tern	-396
vers	-397
erv	-398
▁Y	-399
te	-400
▁200	-401
▁sa	-402
ph	-403
▁when	-404
ational	-405
▁would	-406
▁cons	-407
ts	-408
▁over	-409
▁act	-410
▁kn	-411
▁bet	-412
▁these	-413
lic	-414
ms	-415
ause	-416
lud	-417
ments	-418
..	-419
stem	-420
▁time	-421
▁gen	-422
▁tw	-423
ally	-424
ob	-425
wn	-426
ren	-427
▁new	-428
▁rep	-429
we	-430
ll	-431
▁eff	-432
▁people	-433
hed	-434
ond	-435
▁bl	-436
ific	-437
ys	-438
rit	-439
▁ra	-440
ove	-441
▁under	-442
irst	-443
▁Un	-444
▁col	-445
cess	-446
▁diff	-447
▁most	-448
▁am	-449
ient	-450
▁produ	-451
▁4	-452
▁such	-453
▁how	-454
ious	-455
▁develop	-456
▁use	-457
oss	-458
▁any	-459
red	-460
▁rel	-461
ov	-462
ning	-463
ced	-464
les	-465
▁acc	-466
▁em	-467
▁ph	-468
▁like	-469
▁spec	-470
ative	-471
▁includ	-472
▁ob	-473
▁prov	-474
▁He	-475
▁no	-476
▁off	-477
▁As	-478
▁reg	-479
rib	-480
▁only	-481
ook	-482
▁exp	-483
),	-484
ating	-485
▁need	-486
▁if	-487
ied	-488
▁through	-489
ution	-490
als	-491
ple	-492
iss	-493
▁20	-494
▁two	-495
▁used	-496
▁ac	-497
ark	-498
▁first	-499
▁tr	-500
▁dec	-501
▁child	-502
hen	-503
round	-504
ular	-505
▁water	-506
▁system	-507
ased	-508
▁po	-509
ility	-510
fter	-511
▁5	-512
uring	-513
▁sur	-514
▁what	-515
▁years	-516
alth	-517
▁ind	-518
▁many	-519
uc	-520
▁co	-521
▁our	-522
arch	-523
int	-524
ife	-525
▁Wh	-526
▁add	-527
▁could	-528
ited	-529
ween	-530
ath	-531
▁should	-532
cy	-533
ures	-534
ran	-535
▁pr	-536
ert	-537
▁between	-538
gra	-539
ft	-540
▁rese	-541
ower	-542
aw	-543
▁disc	-544
eth	-545
gan	-546
pe	-547
ever	-548
▁hel	-549
ful	-550
▁att	-551
▁rem	-552
ne	-553
erm	-554
ics	-555
▁pol	-556
▁pres	-557
old	-558
iet	-559
▁inv	-560
▁sub	-561
ract	-562
▁help	-563
ists	-564
ants	-565
fore	-566
ink	-567
▁fe	-568
▁count	-569
ered	-570
▁Al	-571
formation	-572
▁differe	-573
ature	-574
ise	-575
oth	-576
hes	-577
▁supp	-578
row	-579
uch	-580
▁high	-581
ins	-582
gy	-583
▁Pro	-584
ten	-585
ible	-586
sel	-587
ble	-588
▁ass	-589
▁where	-590
▁effect	-591
ade	-592
ines	-593
▁mod	-594
▁num	-595
ology	-596
▁exam	-597
its	-598
▁fl	-599
cent	-600
▁For	-601
ool	-602
▁said	-603
ick	-604
oy	-605
▁well	-606
ars	-607
land	-608
ident	-609
ict	-610
▁cell	-611
▁those	-612
▁Re	-613
▁trans	-614
▁form	-615
▁ear	-616
▁found	-617
▁hum	-618
▁make	-619
▁inf	-620
ases	-621
ont	-622
▁cent	-623
ily	-624
▁her	-625
▁med	-626
▁inter	-627
cept	-628
▁because	-629
vern	-630
ural	-631
meric	-632
▁sm	-633
."	-634
▁call	-635
▁art	-636
ex	-637
chn	-638
ange	-639
▁incre	-640
ually	-641
vent	-642
▁loc	-643
▁En	-644
ivers	-645
▁mem	-646
▁import	-647
▁An	-648
▁inst	-649
urn	-650
▁How	-651
▁det	-652
ism	-653
▁gra	-654
▁process	-655
▁lar	-656
itt	-657
▁even	-658
io	-659
▁Americ	-660
▁fact	-661
▁get	-662
cer	-663
▁information	-664
ork	-665
ata	-666
▁after	-667
▁exper	-668
ds	-669
▁bu	-670
▁long	-671
▁pers	-672
▁gener	-673
▁world	-674
▁way	-675
iron	-676
▁def	-677
▁If	-678
▁We	-679
▁test	-680
▁then	-681
ck	-682
▁6	-683
▁know	-684
▁commun	-685
▁18	-686
▁ext	-687
▁right	-688
chool	-689
ollow	-690
▁just	-691
ection	-692
ized	-693
▁pat	-694
led	-695
other	-696
||	-697
▁same	-698
▁Com	-699
ruct	-700
▁(1	-701
▁result	-702
ives	-703
▁ref	-704
ages	-705
▁fam	-706
▁requ	-707
▁car	-708
▁see	-709
get	-710
▁ed	-711
▁pub	-712
▁different	-713
con	-714
▁They	-715
ically	-716
ved	-717
▁sim	-718
▁mon	-719
,"	-720
▁min	-721
▁very	-722
iew	-723
▁each	-724
ather	-725
ty	-726
▁sec	-727
aking	-728
▁being	-729
▁health	-730
▁Ar	-731
ience	-732
▁ca	-733
▁ke	-734
▁much	-735
▁partic	-736
roup	-737
viron	-738
ness	-739
ination	-740
ward	-741
ef	-742
hem	-743
▁201	-744
ah	-745
ize	-746
ues	-747
▁own	-748
▁var	-749
▁sign	-750
▁during	-751
▁back	-752
ix	-753
irect	-754
▁resp	-755
▁dist	-756
ince	-757
▁him	-758
▁treat	-759
▁follow	-760
▁show	-761
ury	-762
▁set	-763
arm	-764
ands	-765
ergy	-766
▁cur	-767
▁dep	-768
▁est	-769
gg	-770
▁ty	-771
▁ent	-772
▁techn	-773
▁activ	-774
▁research	-775
ven	-776
▁cre	-777
▁7	-778
▁Is	-779
▁again	-780
▁occ	-781
ished	-782
▁There	-783
▁made	-784
▁important	-785
▁–	-786
vironment	-787
▁life	-788
iversity	-789
rol	-790
▁aut	-791
▁|	-792
▁data	-793
▁comple	-794
iel	-795
und	-796
ax	-797
orn	-798
▁govern	-799
▁children	-800
▁10	-801
▁New	-802
▁But	-803
▁every	-804
▁Sc	-805
▁does	-806
▁Se	-807
ides	-808
ined	-809
▁end	-810
▁ins	-811
▁prot	-812
▁dise	-813
▁study	-814
▁199	-815
▁pop	-816
olution	-817
▁she	-818
uss	-819
▁before	-820
▁now	-821
▁my	-822
▁organ	-823
▁And	-824
▁progra	-825
▁Ph	-826
▁lear	-827
▁appro	-828
▁group	-829
▁state	-830
aj	-831
▁bo	-832
▁small	-833
▁both	-834
▁soc	-835
▁elect	-836
▁power	-837
ute	-838
▁proble	-839
oun	-840
▁down	-841
▁8	-842
▁Jew	-843
ving	-844
air	-845
ave	-846
osed	-847
▁level	-848
▁Res	-849
imate	-850
▁report	-851
ting	-852
▁cour	-853
The	-854
ially	-855
▁press	-856
▁number	-857
rent	-858
▁gl	-859
ected	-860
▁three	-861
ros	-862
ared	-863
▁find	-864
▁plan	-865
▁did	-866
ody	-867
▁str	-868
▁redu	-869
ral	-870
000	-871
▁using	-872
▁poss	-873
hip	-874
ices	-875
ron	-876
orth	-877
ock	-878
stit	-879
▁expl	-880
omen	-881
▁human	-882
ital	-883
▁food	-884
▁Ind	-885
▁tem	-886
▁example	-887
gen	-888
▁On	-889
ters	-890
▁ser	-891
▁good	-892
▁often	-893
de	-894
ves	-895
▁grow	-896
.,	-897
bers	-898
▁At	-899
▁Sp	-900
▁main	-901
▁bel	-902
.”	-903
▁desc	-904
-1	-905
▁read	-906
▁sk	-907
▁De	-908
▁called	-909
com	-910
ains	-911
stand	-912
▁lead	-913
▁percent	-914
read	-915
▁hist	-916
▁school	-917
the	-918
▁still	-919
▁contin	-920
inal	-921
ians	-922
▁av	-923
xt	-924
▁though	-925
ring	-926
▁while	-927
ality	-928
▁less	-929
ger	-930
any	-931
▁To	-932
▁students	-933
ale	-934
▁law	-935
▁'	-936
ivid	-937
▁large	-938
▁Chr	-939
▁person	-940
▁great	-941
▁vis	-942
▁conf	-943
▁direct	-944
▁fun	-945
▁around	-946
▁consid	-947
▁design	-948
ources	-949
▁including	-950
der	-951
▁energy	-952
lear	-953
ries	-954
iety	-955
▁common	-956
ier	-957
▁must	-958
conom	-959
20	-960
ium	-961
▁environment	-962
▁What	-963
ulation	-964
▁University	-965
▁dem	-966
▁allow	-967
▁class	-968
outh	-969
way	-970
▁mil	-971
▁char	-972
▁These	-973
up	-974
▁15	-975
reen	-976
▁ret	-977
▁might	-978
erest	-979
itions	-980
▁When	-981
iation	-982
▁ris	-983
▁place	-984
▁product	-985
oh	-986
hers	-987
▁aff	-988
ense	-989
▁support	-990
eral	-991
ained	-992
cl	-993
▁sl	-994
▁require	-995
▁9	-996
▁val	-997
▁op	-998
ified	-999
▁care	-1000
illion	-1001
ien	-1002
day	-1003
▁However	-1004
▁pract	-1005
▁stand	-1006
▁disease	-1007
▁without	-1008
...	-1009
▁spe	-1010
▁look	-1011
dition	-1012
▁development	-1013
▁government	-1014
▁God	-1015
▁says	-1016
lished	-1017
az	-1018
ash	-1019
▁met	-1020
▁mar	-1021
ption	-1022
ertain	-1023
self	-1024
iving	-1025
▁think	-1026
ww	-1027
▁serv	-1028
▁against	-1029
▁few	-1030
acter	-1031
▁land	-1032
▁scient	-1033
ids	-1034
▁gu	-1035
▁phys	-1036
ted	-1037
akes	-1038
▁adv	-1039
▁day	-1040
▁known	-1041
▁object	-1042
ime	-1043
▁equ	-1044
▁cells	-1045
ouse	-1046
▁leg	-1047
man	-1048
,000	-1049
▁sol	-1050
▁American	-1051
ration	-1052
ull	-1053
▁writ	-1054
▁public	-1055
▁United	-1056
▁interest	-1057
▁et	-1058
▁present	-1059
▁species	-1060
inc	-1061
▁iss	-1062
aterial	-1063
▁Can	-1064
▁meas	-1065
▁meth	-1066
▁take	-1067
▁chang	-1068
iqu	-1069
ajor	-1070
iod	-1071
iver	-1072
▁control	-1073
hor	-1074
me	-1075
▁Con	-1076
▁occur	-1077
ization	-1078
ining	-1079
ional	-1080
▁anim	-1081
nce	-1082
ording	-1083
ards	-1084
▁blood	-1085
tt	-1086
iven	-1087
▁econom	-1088
ris	-1089
▁Cent	-1090
▁rest	-1091
▁pressure	-1092
▁cor	-1093
▁low	-1094
ina	-1095
▁bro	-1096
ton	-1097
osp	-1098
▁hand	-1099
▁change	-1100
els	-1101
angu	-1102
▁tri	-1103
ole	-1104
▁proper	-1105
ccess	-1106
▁body	-1107
erc	-1108
▁caus	-1109
ware	-1110
▁project	-1111
▁You	-1112
0.	-1113
ission	-1114
itive	-1115
▁start	-1116
lim	-1117
▁Col	-1118
▁material	-1119
atural	-1120
▁—	-1121
ield	-1122
▁som	-1123
unt	-1124
▁unt	-1125
▁understand	-1126
▁quest	-1127
▁oper	-1128
ets	-1129
ploy	-1130
▁fore	-1131
eng	-1132
▁don	-1133
▁Christ	-1134
▁Z	-1135
▁lim	-1136
▁mat	-1137
▁current	-1138
ived	-1139
▁area	-1140
ological	-1141
uro	-1142
less	-1143
lish	-1144
▁method	-1145
▁bra	-1146
▁light	-1147
ential	-1148
▁treatment	-1149
▁National	-1150
idence	-1151
▁major	-1152
▁sever	-1153
▁ide	-1154
▁build	-1155
▁another	-1156
ental	-1157
ned	-1158
▁ant	-1159
▁pot	-1160
ternational	-1161
amp	-1162
gin	-1163
ross	-1164
▁ve	-1165
duct	-1166
▁say	-1167
atic	-1168
▁last	-1169
:1	-1170
ape	-1171
ude	-1172
▁Med	-1173
ently	-1174
▁include	-1175
▁addition	-1176
ner	-1177
▁cap	-1178
▁eas	-1179
▁early	-1180
▁local	-1181
▁States	-1182
▁temper	-1183
ug	-1184
ify	-1185
▁tre	-1186
▁Ad	-1187
face	-1188
▁among	-1189
here	-1190
▁bas	-1191
though	-1192
▁program	-1193
oms	-1194
▁17	-1195
,”	-1196
▁Sh	-1197
▁imm	-1198
▁within	-1199
▁hy	-1200
ividual	-1201
use	-1202
▁Cl	-1203
▁bre	-1204
▁old	-1205
▁near	-1206
▁pass	-1207
▁family	-1208
▁Ex	-1209
line	-1210
▁too	-1211
▁ident	-1212
▁invol	-1213
2.	-1214
bs	-1215
▁ben	-1216
▁educ	-1217
ote	-1218
cing	-1219
▁mark	-1220
arc	-1221
ability	-1222
ern	-1223
arent	-1224
▁prop	-1225
▁women	-1226
ples	-1227
▁dev	-1228
▁several	-1229
▁&	-1230
oid	-1231
rop	-1232
▁hig	-1233
▁want	-1234
ention	-1235
▁record	-1236
▁Q	-1237
▁areas	-1238
att	-1239
ator	-1240
▁beh	-1241
▁opp	-1242
▁list	-1243
▁belie	-1244
ource	-1245
ek	-1246
cop	-1247
ames	-1248
ason	-1249
▁ele	-1250
▁mus	-1251
▁sit	-1252
ering	-1253
▁perform	-1254
▁provide	-1255
▁following	-1256
NA	-1257
esp	-1258
▁country	-1259
isc	-1260
▁lab	-1261
▁typ	-1262
▁point	-1263
ior	-1264
▁certain	-1265
▁air	-1266
▁indu	-1267
ats	-1268
fess	-1269
▁pur	-1270
▁war	-1271
▁move	-1272
sy	-1273
▁run	-1274
ision	-1275
▁times	-1276
ogra	-1277
▁Some	-1278
▁success	-1279
aim	-1280
alk	-1281
ended	-1282
▁cult	-1283
▁fre	-1284
▁langu	-1285
mb	-1286
▁bir	-1287
▁Eng	-1288
▁Comm	-1289
▁struct	-1290
▁century	-1291
▁dra	-1292
▁eng	-1293
▁saf	-1294
▁home	-1295
▁play	-1296
▁plant	-1297
▁Le	-1298
▁fin	-1299
▁So	-1300
▁Sy	-1301
▁Act	-1302
▁men	-1303
▁const	-1304
▁order	-1305
▁social	-1306
▁particular	-1307
▁far	-1308
▁cost	-1309
▁cause	-1310
rim	-1311
ably	-1312
▁provid	-1313
ilar	-1314
▁four	-1315
▁here	-1316
▁individual	-1317
▁Pl	-1318
work	-1319
▁case	-1320
sp	-1321
▁become	-1322
▁16	-1323
▁Ear	-1324
▁pos	-1325
▁Be	-1326
▁fac	-1327
▁left	-1328
ret	-1329
▁anal	-1330
ged	-1331
par	-1332
▁top	-1333
▁second	-1334
▁free	-1335
▁since	-1336
▁better	-1337
▁dri	-1338
▁open	-1339
urther	-1340
▁things	-1341
alt	-1342
▁obs	-1343
▁pri	-1344
▁amount	-1345
▁applic	-1346
1.	-1347
ither	-1348
▁keep	-1349
▁pain	-1350
▁avail	-1351
▁based	-1352
aps	-1353
oks	-1354
▁rev	-1355
▁name	-1356
rate	-1357
▁One	-1358
▁mot	-1359
▁impro	-1360
▁view	-1361
▁che	-1362
▁orig	-1363
▁estab	-1364
▁period	-1365
▁[	-1366
ways	-1367
▁hard	-1368
▁polit	-1369
▁cancer	-1370
▁discuss	-1371
une	-1372
▁Ab	-1373
▁ter	-1374
▁seem	-1375
▁bi	-1376
▁lo	-1377
▁bus	-1378
▁able	-1379
▁prom	-1380
▁turn	-1381
▁community	-1382
SA	-1383
orts	-1384
▁All	-1385
▁words	-1386
▁access	-1387
▁possible	-1388
▁risk	-1389
▁--	-1390
ories	-1391
▁cases	-1392
▁means	-1393
▁author	-1394
▁del	-1395
resent	-1396
icle	-1397
▁put	-1398
icial	-1399
▁best	-1400
▁chem	-1401
▁given	-1402
1,	-1403
let	-1404
▁oil	-1405
urope	-1406
▁others	-1407
▁Mus	-1408
▁until	-1409
ured	-1410
▁12	-1411
▁tru	-1412
▁site	-1413
▁works	-1414
▁gr	-1415
▁rad	-1416
▁rece	-1417
▁natural	-1418
▁1.	-1419
ects	-1420
▁due	-1421
▁par	-1422
▁least	-1423
▁million	-1424
to	-1425
alf	-1426
ges	-1427
ances	-1428
ittle	-1429
▁fil	-1430
atory	-1431
aken	-1432
ggest	-1433
iness	-1434
▁comb	-1435
ik	-1436
oph	-1437
ditions	-1438
▁Resear	-1439
▁signific	-1440
▁Gen	-1441
▁rights	-1442
▁describ	-1443
lu	-1444
ling	-1445
over	-1446
▁history	-1447
▁suggest	-1448
ends	-1449
etic	-1450
▁prote	-1451
ogn	-1452
ients	-1453
▁happ	-1454
rodu	-1455
▁real	-1456
▁prevent	-1457
ai	-1458
200	-1459
osis	-1460
▁available	-1461
ohn	-1462
▁surface	-1463
▁countries	-1464
10	-1465
▁non	-1466
▁come	-1467
▁death	-1468
▁(19	-1469
▁let	-1470
▁effects	-1471
▁results	-1472
▁function	-1473
ograph	-1474
ored	-1475
▁sing	-1476
▁benef	-1477
▁however	-1478
aper	-1479
ules	-1480
▁later	-1481
ilities	-1482
▁determ	-1483
eg	-1484
ung	-1485
▁neg	-1486
vious	-1487
▁conn	-1488
lement	-1489
▁employ	-1490
▁problem	-1491
ills	-1492
▁above	-1493
▁month	-1494
iment	-1495
▁Europe	-1496
▁problems	-1497
ox	-1498
ued	-1499
iter	-1500
aster	-1501
iated	-1502
▁indust	-1503
▁With	-1504
▁members	-1505
▁similar	-1506
eds	-1507
ream	-1508
ately	-1509
▁clear	-1510
utes	-1511
▁rele	-1512
▁exist	-1513
be	-1514
idd	-1515
▁His	-1516
▁lay	-1517
icult	-1518
▁course	-1519
ery	-1520
▁30	-1521
ourn	-1522
istic	-1523
aining	-1524
▁never	-1525
▁evidence	-1526
50	-1527
▁0	-1528
irc	-1529
lam	-1530
▁Te	-1531
ised	-1532
▁studies	-1533
▁Or	-1534
▁Soc	-1535
▁ast	-1536
▁head	-1537
▁mult	-1538
▁prim	-1539
▁North	-1540
▁special	-1541
▁increase	-1542
▁age	-1543
ivity	-1544
5.	-1545
gn	-1546
▁cal	-1547
ortun	-1548
▁Cons	-1549
▁soft	-1550
▁comput	-1551
__	-1552
ank	-1553
▁By	-1554
▁ill	-1555
▁vol	-1556
agement	-1557
▁Jewish	-1558
▁plants	-1559
▁various	-1560
▁activity	-1561
iting	-1562
ledge	-1563
▁fall	-1564
▁short	-1565
ule	-1566
▁la	-1567
▁wind	-1568
▁researc	-1569
for	-1570
▁crit	-1571
rap	-1572
6.	-1573
▁CD	-1574
▁Dr	-1575
ivil	-1576
▁higher	-1577
▁little	-1578
▁working	-1579
▁temperature	-1580
▁John	-1581
selves	-1582
▁appear	-1583
▁having	-1584
ane	-1585
obal	-1586
▁2.	-1587
▁Bl	-1588
ocus	-1589
▁198	-1590
▁likely	-1591
mber	-1592
▁fra	-1593
▁levels	-1594
▁/	-1595
hib	-1596
rug	-1597
▁13	-1598
▁14	-1599
▁gas	-1600
ively	-1601
▁changes	-1602
▁usually	-1603
▁conditions	-1604
ray	-1605
▁post	-1606
▁space	-1607
▁profess	-1608
▁language	-1609
ency	-1610
▁gre	-1611
▁sens	-1612
▁step	-1613
▁impact	-1614
▁population	-1615
ler	-1616
▁Cal	-1617
▁net	-1618
▁book	-1619
▁mean	-1620
ression	-1621
not	-1622
rated	-1623
▁doct	-1624
ecially	-1625
▁economic	-1626
ma	-1627
▁z	-1628
lor	-1629
erence	-1630
ething	-1631
▁ground	-1632
▁specific	-1633
▁br	-1634
pr	-1635
ipp	-1636
▁represent	-1637
▁activities	-1638
sw	-1639
iam	-1640
asing	-1641
▁youn	-1642
▁event	-1643
▁enough	-1644
▁region	-1645
▁Research	-1646
2,	-1647
orld	-1648
▁Jews	-1649
▁Earth	-1650
▁general	-1651
▁systems	-1652
8.	-1653
min	-1654
rict	-1655
gether	-1656
▁medic	-1657
ervation	-1658
▁together	-1659
ene	-1660
omm	-1661
aves	-1662
▁days	-1663
▁plac	-1664
lection	-1665
▁significant	-1666
▁sw	-1667
ired	-1668
ember	-1669
▁away	-1670
▁invest	-1671
▁subject	-1672
especially	-1673
▁technology	-1674
▁$	-1675
anc	-1676
fer	-1677
▁el	-1678
ators	-1679
▁five	-1680
▁phot	-1681
▁prob	-1682
▁word	-1683
▁begin	-1684
▁needs	-1685
▁polic	-1686
▁developed	-1687
het	-1688
val	-1689
imes	-1690
uture	-1691
▁strong	-1692
▁animals	-1693
▁further	-1694
▁something	-1695
eb	-1696
▁Im	-1697
abit	-1698
▁fail	-1699
▁past	-1700
▁character	-1701
app	-1702
most	-1703
▁focus	-1704
▁learn	-1705
▁‘	-1706
uls	-1707
▁assoc	-1708
▁became	-1709
▁physical	-1710
▁production	-1711
ode	-1712
oint	-1713
▁ask	-1714
▁dig	-1715
▁fish	-1716
▁thought	-1717
▁difficult	-1718
▁conduct	-1719
ead	-1720
onst	-1721
▁dam	-1722
▁sym	-1723
epend	-1724
▁fund	-1725
▁type	-1726
ournal	-1727
▁chemical	-1728
▁products	-1729
▁increased	-1730
▁War	-1731
thing	-1732
▁going	-1733
▁necess	-1734
4.	-1735
agn	-1736
bon	-1737
ott	-1738
▁ann	-1739
▁feel	-1740
▁size	-1741
▁concer	-1742
▁whether	-1743
▁national	-1744
▁ey	-1745
▁May	-1746
▁try	-1747
▁norm	-1748
▁After	-1749
▁famil	-1750
▁field	-1751
▁respons	-1752
PA	-1753
sc	-1754
lying	-1755
▁Stud	-1756
▁full	-1757
▁along	-1758
▁complete	-1759
▁especially	-1760
ours	-1761
▁address	-1762
▁learning	-1763
▁political	-1764
▁Pol	-1765
▁mov	-1766
▁loss	-1767
▁team	-1768
▁claim	-1769
▁Muslim	-1770
▁single	-1771
▁source	-1772
9.	-1773
ley	-1774
▁ri	-1775
ones	-1776
itted	-1777
▁Cont	-1778
▁meet	-1779
▁seen	-1780
▁While	-1781
▁creat	-1782
▁lower	-1783
3.	-1784
rel	-1785
▁wr	-1786
▁That	-1787
▁side	-1788
ederal	-1789
▁knowledge	-1790
▁themselves	-1791
▁.	-1792
ttp	-1793
▁lot	-1794
▁why	-1795
artment	-1796
wh	-1797
por	-1798
▁er	-1799
▁11	-1800
▁dr	-1801
▁sun	-1802
▁once	-1803
▁today	-1804
▁consum	-1805
▁really	-1806
▁consider	-1807
oot	-1808
olec	-1809
▁More	-1810
▁next	-1811
▁indic	-1812
ruction	-1813
ulations	-1814
▁resources	-1815
ison	-1816
ready	-1817
▁medical	-1818
eor	-1819
ilt	-1820
▁Rep	-1821
▁enc	-1822
▁key	-1823
▁Health	-1824
▁making	-1825
▁complex	-1826
▁education	-1827
elf	-1828
ches	-1829
▁half	-1830
▁Center	-1831
ney	-1832
▁Am	-1833
▁done	-1834
yl	-1835
▁dom	-1836
▁vir	-1837
▁dest	-1838
▁sent	-1839
atures	-1840
port	-1841
▁cop	-1842
▁kind	-1843
▁always	-1844
▁either	-1845
▁researchers	-1846
ID	-1847
ym	-1848
icro	-1849
ires	-1850
itor	-1851
▁Mar	-1852
▁circ	-1853
▁World	-1854
▁brain	-1855
▁frequ	-1856
▁whole	-1857
ibility	-1858
▁standard	-1859
▁experience	-1860
▁II	-1861
▁Aust	-1862
▁York	-1863
▁init	-1864
▁particip	-1865
iol	-1866
side	-1867
▁city	-1868
▁kill	-1869
atives	-1870
▁create	-1871
▁rather	-1872
ae	-1873
put	-1874
oman	-1875
▁opt	-1876
igure	-1877
▁disord	-1878
▁parent	-1879
▁50	-1880
atch	-1881
chie	-1882
▁Ass	-1883
▁town	-1884
▁model	-1885
▁already	-1886
▁provides	-1887
7.	-1888
edi	-1889
rab	-1890
▁Em	-1891
aged	-1892
▁Car	-1893
▁wild	-1894
▁growth	-1895
▁living	-1896
dom	-1897
oes	-1898
▁big	-1899
▁suff	-1900
▁China	-1901
▁evolution	-1902
▁Acc	-1903
▁sum	-1904
ublic	-1905
▁drug	-1906
▁taken	-1907
▁value	-1908
stitute	-1909
▁protect	-1910
5,	-1911
▁US	-1912
hing	-1913
ribut	-1914
▁surv	-1915
▁recogn	-1916
ched	-1917
pect	-1918
roll	-1919
▁came	-1920
▁ways	-1921
ending	-1922
▁scientists	-1923
▁live	-1924
rought	-1925
▁weight	-1926
▁relations	-1927
▁environmental	-1928
".	-1929
uel	-1930
inary	-1931
by	-1932
chan	-1933
gress	-1934
urity	-1935
▁house	-1936
▁across	-1937
▁states	-1938
▁X	-1939
▁Go	-1940
rown	-1941
▁Min	-1942
aches	-1943
▁future	-1944
▁concent	-1945
▁published	-1946
af	-1947
ows	-1948
▁Af	-1949
▁100	-1950
▁red	-1951
▁subst	-1952
▁young	-1953
▁English	-1954
▁tradition	-1955
▁considered	-1956
▁cho	-1957
▁pay	-1958
▁six	-1959
▁give	-1960
▁role	-1961
▁influ	-1962
▁observ	-1963
▁return	-1964
enn	-1965
▁color	-1966
▁makes	-1967
▁global	-1968
▁required	-1969
▁international	-1970
ER	-1971
sych	-1972
ables	-1973
▁hold	-1974
unting	-1975
7,	-1976
▁No	-1977
▁191	-1978
▁jud	-1979
▁line	-1980
▁stat	-1981
▁wide	-1982
▁close	-1983
▁range	-1984
▁modern	-1985
▁business	-1986
▁DNA	-1987
▁upon	-1988
▁needed	-1989
▁Although	-1990
ze	-1991
aut	-1992
cle	-1993
▁Gra	-1994
itary	-1995
▁path	-1996
icient	-1997
▁cannot	-1998
acc	-1999
ibr	-2000
ils	-2001
lex	-2002
reme	-2003
▁ste	-2004
▁exerc	-2005
▁sound	-2006
▁collect	-2007
go	-2008
augh	-2009
plic	-2010
▁Per	-2011
▁King	-2012
▁skin	-2013
▁State	-2014
▁heart	-2015
▁article	-2016
▁programs	-2017
30	-2018
ols	-2019
reg	-2020
▁She	-2021
▁Iran	-2022
▁answ	-2023
▁Calif	-2024
▁practice	-2025
▁potential	-2026
4,	-2027
of	-2028
▁ce	-2029
▁di	-2030
ysis	-2031
▁bur	-2032
▁tax	-2033
▁Brit	-2034
▁situ	-2035
overed	-2036
▁issues	-2037
▁itself	-2038
//	-2039
8,	-2040
://	-2041
ety	-2042
gest	-2043
ints	-2044
▁Dep	-2045
▁disp	-2046
▁flow	-2047
verage	-2048
▁actually	-2049
ging	-2050
▁coun	-2051
▁South	-2052
▁react	-2053
▁relig	-2054
▁recent	-2055
▁reduce	-2056
▁toward	-2057
▁America	-2058
-2	-2059
3,	-2060
ES	-2061
ee	-2062
ocu	-2063
▁Ne	-2064
▁abs	-2065
▁sea	-2066
▁separ	-2067
▁climate	-2068
▁official	-2069
▁software	-2070
▁Christian	-2071
▁according	-2072
ius	-2073
xic	-2074
iple	-2075
▁tot	-2076
▁tell	-2077
▁took	-2078
▁histor	-2079
▁patients	-2080
);	-2081
yn	-2082
acy	-2083
ptoms	-2084
▁Germ	-2085
▁memory	-2086
▁questions	-2087
sh	-2088
ada	-2089
enc	-2090
rid	-2091
▁Gu	-2092
ried	-2093
▁sed	-2094
▁music	-2095
▁entire	-2096
▁groups	-2097
▁created	-2098
6,	-2099
umb	-2100
ump	-2101
▁NA	-2102
ateg	-2103
cean	-2104
▁ess	-2105
▁Many	-2106
▁vill	-2107
▁parts	-2108
▁sense	-2109
alination	-2110
▁training	-2111
mon	-2112
cell	-2113
izing	-2114
▁priv	-2115
▁week	-2116
▁began	-2117
ification	-2118
▁question	-2119
.)	-2120
ird	-2121
▁ens	-2122
▁stop	-2123
estern	-2124
▁behav	-2125
▁below	-2126
▁market	-2127
▁ability	-2128
▁network	-2129
▁management	-2130
ened	-2131
isms	-2132
like	-2133
▁earth	-2134
▁measure	-2135
uk	-2136
oses	-2137
vere	-2138
▁Other	-2139
▁mechan	-2140
▁reported	-2141
▁UN	-2142
▁dia	-2143
▁Most	-2144
▁perm	-2145
aching	-2146
▁shows	-2147
▁types	-2148
▁white	-2149
▁reason	-2150
▁related	-2151
▁electric	-2152
▁communities	-2153
▁established	-2154
lo	-2155
ival	-2156
▁197	-2157
▁heat	-2158
▁force	-2159
▁demonst	-2160
▁quality	-2161
▁involved	-2162
▁materials	-2163
▁throughout	-2164
now	-2165
uck	-2166
▁ur	-2167
omes	-2168
▁molec	-2169
▁content	-2170
stitution	-2171
eter	-2172
oney	-2173
udej	-2174
▁diet	-2175
▁story	-2176
▁recomm	-2177
▁concept	-2178
▁science	-2179
9,	-2180
▁anc	-2181
aries	-2182
aring	-2183
▁Char	-2184
▁king	-2185
▁mass	-2186
▁Mudej	-2187
▁achie	-2188
▁series	-2189
▁3.	-2190
▁cle	-2191
▁emer	-2192
▁page	-2193
ription	-2194
▁events	-2195
▁protein	-2196
▁opportun	-2197
▁Co	-2198
▁Pe	-2199
life	-2200
mosp	-2201
ober	-2202
oura	-2203
rial	-2204
ront	-2205
▁Man	-2206
atter	-2207
▁sust	-2208
▁black	-2209
▁almost	-2210
ope	-2211
ique	-2212
▁Tra	-2213
right	-2214
▁Phil	-2215
▁term	-2216
▁court	-2217
▁princ	-2218
vention	-2219
▁nature	-2220
ille	-2221
▁Jan	-2222
▁fru	-2223
▁Park	-2224
ington	-2225
▁engine	-2226
▁contain	-2227
▁symptoms	-2228
lies	-2229
▁App	-2230
ornia	-2231
▁emiss	-2232
▁paper	-2233
▁sources	-2234
12	-2235
ots	-2236
ales	-2237
▁cit	-2238
▁fri	-2239
▁Hist	-2240
▁produce	-2241
▁ir	-2242
view	-2243
▁etc	-2244
▁flu	-2245
▁Pres	-2246
▁teac	-2247
▁north	-2248
▁doctor	-2249
▁California	-2250
▁Ju	-2251
acks	-2252
haps	-2253
▁sure	-2254
ext	-2255
pro	-2256
www	-2257
▁Sec	-2258
▁http	-2259
▁rate	-2260
▁legal	-2261
▁tests	-2262
▁account	-2263
▁families	-2264
my	-2265
ann	-2266
fact	-2267
reng	-2268
▁Har	-2269
▁Pre	-2270
▁arch	-2271
▁idea	-2272
▁threat	-2273
▁communic	-2274
cil	-2275
▁yet	-2276
etimes	-2277
▁habit	-2278
▁detail	-2279
▁contact	-2280
▁building	-2281
▁previous	-2282
▁structure	-2283
ips	-2284
▁Hum	-2285
▁ver	-2286
▁Russ	-2287
▁sett	-2288
▁maint	-2289
▁produced	-2290
▁developing	-2291
ites	-2292
▁squ	-2293
icles	-2294
ights	-2295
▁held	-2296
▁port	-2297
▁Afric	-2298
▁visit	-2299
▁carbon	-2300
▁stra	-2301
▁regard	-2302
▁pattern	-2303
▁relative	-2304
ush	-2305
ript	-2306
▁sam	-2307
erous	-2308
▁greater	-2309
▁introdu	-2310
EN	-2311
▁fa	-2312
rect	-2313
▁Mor	-2314
▁Wash	-2315
▁methods	-2316
ino	-2317
▁Me	-2318
rapy	-2319
▁thus	-2320
▁caused	-2321
▁designed	-2322
▁necessary	-2323
abor	-2324
lege	-2325
▁Int	-2326
▁arg	-2327
attle	-2328
▁shown	-2329
▁total	-2330
▁improve	-2331
▁According	-2332
▁Institute	-2333
▁Department	-2334
amb	-2335
▁21	-2336
▁40	-2337
gram	-2338
▁bar	-2339
▁lic	-2340
ences	-2341
▁self	-2342
▁viol	-2343
▁birth	-2344
▁image	-2345
▁probably	-2346
▁desalination	-2347
▁International	-2348
empt	-2349
▁Dav	-2350
▁led	-2351
▁mind	-2352
▁chall	-2353
▁altern	-2354
▁provided	-2355
):	-2356
oon	-2357
son	-2358
ulf	-2359
▁Pr	-2360
uary	-2361
based	-2362
▁stri	-2363
▁green	-2364
igation	-2365
▁months	-2366
▁theory	-2367
▁independ	-2368
▁implement	-2369
apt	-2370
▁Ag	-2371
dict	-2372
imum	-2373
term	-2374
▁Val	-2375
▁hyd	-2376
▁Fran	-2377
▁vide	-2378
imately	-2379
▁longer	-2380
▁student	-2381
▁position	-2382
▁MP	-2383
▁mor	-2384
▁docu	-2385
▁prec	-2386
▁built	-2387
▁labor	-2388
▁computer	-2389
ties	-2390
▁sou	-2391
overy	-2392
▁Comp	-2393
▁ever	-2394
ections	-2395
▁action	-2396
▁normal	-2397
▁numbers	-2398
▁compared	-2399
▁effective	-2400
IN	-2401
ask	-2402
ira	-2403
hest	-2404
urch	-2405
eding	-2406
▁fire	-2407
▁link	-2408
▁mount	-2409
org	-2410
ume	-2411
▁25	-2412
amin	-2413
▁Rec	-2414
▁ago	-2415
▁aud	-2416
▁deb	-2417
▁rot	-2418
iddle	-2419
ising	-2420
▁trade	-2421
▁increasing	-2422
▁scientific	-2423
alu	-2424
▁Us	-2425
▁cy	-2426
sect	-2427
▁job	-2428
▁jur	-2429
▁tur	-2430
▁NASA	-2431
▁conc	-2432
▁mach	-2433
▁milk	-2434
▁poll	-2435
▁whose	-2436
eration	-2437
AT	-2438
vey	-2439
▁Do	-2440
▁heav	-2441
▁Medic	-2442
▁south	-2443
▁application	-2444
ades	-2445
sequ	-2446
▁194	-2447
▁Now	-2448
▁cut	-2449
ister	-2450
osure	-2451
usion	-2452
ternal	-2453
▁basic	-2454
▁super	-2455
istance	-2456
▁causes	-2457
▁taking	-2458
▁writing	-2459
ached	-2460
ening	-2461
▁adult	-2462
▁streng	-2463
▁factors	-2464
oly	-2465
unic	-2466
fully	-2467
▁imag	-2468
▁text	-2469
▁vers	-2470
ensive	-2471
minist	-2472
▁hours	-2473
▁outside	-2474
▁military	-2475
▁understanding	-2476
ON	-2477
▁wa	-2478
▁card	-2479
osition	-2480
▁simple	-2481
Th	-2482
We	-2483
▁Bo	-2484
arily	-2485
▁June	-2486
▁uses	-2487
▁River	-2488
▁online	-2489
▁policy	-2490
▁safety	-2491
▁additional	-2492
▁associated	-2493
irm	-2494
mat	-2495
ply	-2496
▁Oct	-2497
estic	-2498
gency	-2499
▁pict	-2500
▁parents	-2501
▁regular	-2502
▁European	-2503
▁Ed	-2504
▁Tr	-2505
▁ut	-2506
hens	-2507
ncop	-2508
▁Ant	-2509
▁deg	-2510
▁(200	-2511
▁Read	-2512
▁decre	-2513
▁forms	-2514
▁integ	-2515
▁issue	-2516
▁shall	-2517
▁father	-2518
▁federal	-2519
11	-2520
▁4.	-2521
pril	-2522
lease	-2523
▁Arab	-2524
▁Part	-2525
▁late	-2526
▁slow	-2527
▁money	-2528
▁quick	-2529
▁seems	-2530
▁During	-2531
▁atmosp	-2532
▁primary	-2533
▁includes	-2534
▁described	-2535
▁ec	-2536
▁emb	-2537
rance	-2538
rench	-2539
▁liter	-2540
▁animal	-2541
▁compet	-2542
▁mental	-2543
▁consist	-2544
▁Washington	-2545
ony	-2546
abet	-2547
aint	-2548
gypt	-2549
vest	-2550
▁fat	-2551
light	-2552
▁calc	-2553
▁poor	-2554
▁books	-2555
▁mother	-2556
▁believe	-2557
▁written	-2558
▁industry	-2559
▁interact	-2560
▁property	-2561
ads	-2562
oll	-2563
erve	-2564
rael	-2565
▁dou	-2566
apter	-2567
rates	-2568
▁From	-2569
▁Pers	-2570
▁coll	-2571
▁magn	-2572
istics	-2573
▁evalu	-2574
▁reflect	-2575
▁approach	-2576
▁original	-2577
60	-2578
ief	-2579
oor	-2580
▁1,	-2581
amed	-2582
ander	-2583
▁acid	-2584
▁decl	-2585
▁media	-2586
▁accept	-2587
▁showed	-2588
▁travel	-2589
▁experien	-2590
ari	-2591
▁ep	-2592
nces	-2593
▁bit	-2594
▁hor	-2595
▁nuc	-2596
▁camp	-2597
▁civil	-2598
▁thous	-2599
▁toxic	-2600
▁genetic	-2601
▁growing	-2602
▁objects	-2603
▁respect	-2604
▁workers	-2605
▁therefore	-2606
ET	-2607
lt	-2608
pri	-2609
rew	-2610
▁inj	-2611
▁sus	-2612
▁foss	-2613
▁psych	-2614
▁average	-2615
▁culture	-2616
▁schools	-2617
▁section	-2618
▁performance	-2619
ns	-2620
▁Ac	-2621
▁Ke	-2622
▁Qu	-2623
▁sex	-2624
aling	-2625
thern	-2626
▁Here	-2627
▁Will	-2628
▁dead	-2629
▁trib	-2630
undred	-2631
▁bring	-2632
▁forest	-2633
▁select	-2634
▁Society	-2635
▁extreme	-2636
▁analysis	-2637
▁continue	-2638
AN	-2639
IT	-2640
hy	-2641
asc	-2642
esc	-2643
hern	-2644
▁ren	-2645
▁tar	-2646
ricult	-2647
▁Egypt	-2648
▁refer	-2649
▁School	-2650
▁Science	-2651
▁express	-2652
▁although	-2653
▁continued	-2654
--	-2655
gar	-2656
uff	-2657
▁Gl	-2658
inks	-2659
onse	-2660
▁Her	-2661
▁acqu	-2662
▁talk	-2663
ulated	-2664
▁remov	-2665
▁assess	-2666
▁compon	-2667
▁attempt	-2668
▁directly	-2669
▁identify	-2670
▁included	-2671
▁negative	-2672
ops	-2673
▁Tw	-2674
pper	-2675
▁mix	-2676
aving	-2677
▁capt	-2678
▁face	-2679
▁prep	-2680
▁Islam	-2681
▁estim	-2682
▁bacter	-2683
▁compan	-2684
AL	-2685
▁192	-2686
▁Cor	-2687
istry	-2688
▁farm	-2689
▁variety	-2690
▁generally	-2691
▁particularly	-2692
It	-2693
OR	-2694
ih	-2695
ham	-2696
where	-2697
▁avoid	-2698
▁Hunting	-2699
bo	-2700
▁Art	-2701
▁sat	-2702
▁rout	-2703
▁tend	-2704
▁went	-2705
ecause	-2706
utions	-2707
▁veget	-2708
ologies	-2709
▁beginning	-2710
-0	-2711
see	-2712
urs	-2713
bran	-2714
lied	-2715
lands	-2716
osoph	-2717
▁Sept	-2718
▁vari	-2719
ership	-2720
▁Assoc	-2721
▁terms	-2722
▁track	-2723
orthern	-2724
▁matter	-2725
▁nation	-2726
▁occurs	-2727
▁Develop	-2728
▁efforts	-2729
▁relationship	-2730
ST	-2731
duc	-2732
▁file	-2733
elling	-2734
▁motor	-2735
▁Israel	-2736
▁damage	-2737
▁factor	-2738
▁humans	-2739
▁larger	-2740
▁skills	-2741
▁services	-2742
▁traditional	-2743
AR	-2744
rest	-2745
▁sal	-2746
ength	-2747
▁check	-2748
▁thing	-2749
ribution	-2750
▁instead	-2751
▁sustain	-2752
▁cr	-2753
▁jo	-2754
enth	-2755
iles	-2756
▁cra	-2757
▁repl	-2758
▁reve	-2759
ellect	-2760
▁micro	-2761
▁active	-2762
▁affect	-2763
▁device	-2764
▁nearly	-2765
▁origin	-2766
▁movement	-2767
▁Feb	-2768
▁See	-2769
inter	-2770
rogen	-2771
▁Gree	-2772
▁Mary	-2773
▁April	-2774
▁Since	-2775
▁added	-2776
▁break	-2777
▁write	-2778
▁formed	-2779
▁capital	-2780
▁limited	-2781
▁contains	-2782
▁determine	-2783
▁Sl	-2784
▁Sm	-2785
adem	-2786
hold	-2787
▁Par	-2788
▁har	-2789
▁hon	-2790
▁Geor	-2791
▁purp	-2792
ibrary	-2793
▁cover	-2794
▁speak	-2795
▁review	-2796
▁screen	-2797
▁January	-2798
▁received	-2799
▁disorders	-2800
:2	-2801
▁IS	-2802
▁MPa	-2803
▁dog	-2804
arden	-2805
ellow	-2806
abetes	-2807
ground	-2808
▁David	-2809
▁Human	-2810
▁costs	-2811
▁diagn	-2812
▁reach	-2813
▁British	-2814
▁Journal	-2815
▁protection	-2816
bi	-2817
omp	-2818
inct	-2819
▁ang	-2820
ulate	-2821
useum	-2822
▁feet	-2823
▁safe	-2824
▁spir	-2825
▁stru	-2826
▁wall	-2827
▁speed	-2828
▁simply	-2829
▁popular	-2830
▁sometimes	-2831
aff	-2832
ida	-2833
▁(2	-2834
ises	-2835
▁Vir	-2836
anced	-2837
aters	-2838
inese	-2839
▁High	-2840
▁July	-2841
▁beds	-2842
iments	-2843
▁Press	-2844
▁citiz	-2845
▁hundred	-2846
▁serious	-2847
▁society	-2848
▁progress	-2849
ls	-2850
eed	-2851
ica	-2852
▁ox	-2853
ided	-2854
rast	-2855
ully	-2856
▁bal	-2857
▁mom	-2858
▁James	-2859
▁Under	-2860
▁Water	-2861
▁clean	-2862
▁lands	-2863
▁French	-2864
▁security	-2865
leb	-2866
uge	-2867
apan	-2868
ying	-2869
▁190	-2870
arian	-2871
▁Flor	-2872
▁bott	-2873
▁deep	-2874
cember	-2875
ension	-2876
▁lines	-2877
▁trial	-2878
▁allows	-2879
▁Austral	-2880
ncopation	-2881
▁decision	-2882
▁President	-2883
40	-2884
wise	-2885
▁...	-2886
▁Mon	-2887
▁den	-2888
▁log	-2889
▁2012	-2890
▁Even	-2891
▁appe	-2892
▁laws	-2893
▁lost	-2894
▁warm	-2895
▁agree	-2896
ception	-2897
▁Chinese	-2898
ellectual	-2899
▁diseases	-2900
▁properties	-2901
▁applications	-2902
▁ap	-2903
atur	-2904
asons	-2905
ronic	-2906
▁West	-2907
▁fuel	-2908
▁host	-2909
▁star	-2910
isions	-2911
▁broad	-2912
▁rules	-2913
▁planet	-2914
▁remain	-2915
▁brought	-2916
▁healthy	-2917
▁membran	-2918
▁sediment	-2919
▁attention	-2920
OS	-2921
aul	-2922
▁(18	-2923
▁eye	-2924
▁obt	-2925
▁kids	-2926
▁mess	-2927
ipment	-2928
▁carry	-2929
▁minutes	-2930
▁service	-2931
▁appropri	-2932
▁exercise	-2933
-3	-2934
bor	-2935
iny	-2936
isl	-2937
▁Su	-2938
ming	-2939
▁Aug	-2940
▁nut	-2941
itude	-2942
▁Lord	-2943
▁code	-2944
▁lack	-2945
▁vict	-2946
itting	-2947
▁Child	-2948
▁Japan	-2949
▁comes	-2950
▁doing	-2951
▁takes	-2952
▁video	-2953
itation	-2954
▁inside	-2955
▁Environment	-2956
arr	-2957
gal	-2958
▁My	-2959
▁Os	-2960
ider	-2961
▁lif	-2962
ought	-2963
▁draw	-2964
▁hair	-2965
▁virt	-2966
▁ideas	-2967
ospital	-2968
▁Canada	-2969
▁German	-2970
▁September	-2971
▁religious	-2972
▁24	-2973
room	-2974
▁cat	-2975
▁eth	-2976
▁fav	-2977
▁pul	-2978
ields	-2979
▁cust	-2980
▁soon	-2981
▁Count	-2982
▁electr	-2983
▁commerc	-2984
▁private	-2985
▁requires	-2986
▁condition	-2987
leep	-2988
ores	-2989
▁Bra	-2990
▁San	-2991
▁eat	-2992
▁corn	-2993
▁sequ	-2994
▁doesn	-2995
▁drive	-2996
▁stream	-2997
▁billion	-2998
▁meaning	-2999
▁behavior	-3000
▁i	-3001
airs	-3002
year	-3003
▁Sam	-3004
▁Alex	-3005
▁else	-3006
▁sand	-3007
inical	-3008
▁First	-3009
▁India	-3010
▁hands	-3011
▁lives	-3012
▁processing	-3013
▁individuals	-3014
do	-3015
ico	-3016
▁El	-3017
....	-3018
▁son	-3019
icien	-3020
▁2010	-3021
▁adop	-3022
▁fear	-3023
ctions	-3024
ternet	-3025
▁coast	-3026
▁places	-3027
▁transl	-3028
▁digital	-3029
▁looking	-3030
▁elements	-3031
▁location	-3032
▁recently	-3033
BC	-3034
ech	-3035
aily	-3036
yond	-3037
▁Off	-3038
water	-3039
▁East	-3040
▁copy	-3041
▁true	-3042
iction	-3043
▁block	-3044
▁eight	-3045
▁share	-3046
▁People	-3047
▁ensure	-3048
▁target	-3049
▁Because	-3050
▁Iranian	-3051
▁started	-3052
▁standards	-3053
aid	-3054
ero	-3055
▁Our	-3056
osing	-3057
ufact	-3058
▁gene	-3059
▁tele	-3060
iverse	-3061
▁birds	-3062
▁defin	-3063
ovember	-3064
▁attack	-3065
▁financ	-3066
▁search	-3067
▁History	-3068
▁himself	-3069
▁treated	-3070
▁December	-3071
▁transport	-3072
▁difference	-3073
▁populations	-3074
ED	-3075
▁x	-3076
cks	-3077
ese	-3078
ror	-3079
uth	-3080
▁PM	-3081
ania	-3082
come	-3083
edia	-3084
iers	-3085
itle	-3086
ocks	-3087
used	-3088
▁Law	-3089
▁Sol	-3090
▁bul	-3091
▁ord	-3092
▁sil	-3093
▁Cour	-3094
▁room	-3095
▁equal	-3096
▁quite	-3097
ference	-3098
▁Govern	-3099
▁System	-3100
▁interp	-3101
▁exposure	-3102
▁multiple	-3103
▁officials	-3104
dd	-3105
▁sn	-3106
fect	-3107
▁aim	-3108
▁max	-3109
gment	-3110
▁March	-3111
▁solar	-3112
▁highly	-3113
▁proced	-3114
▁correct	-3115
▁perhaps	-3116
▁response	-3117
▁companies	-3118
99	-3119
▁MD	-3120
itte	-3121
▁Dar	-3122
▁Dis	-3123
▁rob	-3124
▁ten	-3125
▁veh	-3126
ounds	-3127
uries	-3128
▁Educ	-3129
▁game	-3130
▁laun	-3131
mitted	-3132
▁Techn	-3133
▁displ	-3134
▁front	-3135
▁ocean	-3136
▁youth	-3137
▁demand	-3138
▁immedi	-3139
▁benefit	-3140
▁smaller	-3141
▁Medicine	-3142
erg	-3143
▁Gr	-3144
iate	-3145
ogen	-3146
▁Bar	-3147
▁Inc	-3148
▁Reg	-3149
▁Sim	-3150
▁exc	-3151
▁kid	-3152
▁mid	-3153
▁und	-3154
▁vit	-3155
odies	-3156
▁mill	-3157
▁whom	-3158
rolled	-3159
▁Mount	-3160
▁sites	-3161
▁supply	-3162
▁getting	-3163
▁conducted	-3164
▁situation	-3165
",	-3166
eks	-3167
elt	-3168
set	-3169
▁ge	-3170
lier	-3171
▁Are	-3172
▁unc	-3173
alled	-3174
▁Ital	-3175
▁phil	-3176
▁layer	-3177
▁third	-3178
▁stress	-3179
▁William	-3180
▁encoura	-3181
▁remains	-3182
▁Association	-3183
kn	-3184
oles	-3185
▁196	-3186
▁Not	-3187
▁cold	-3188
▁vacc	-3189
▁alone	-3190
▁miles	-3191
rations	-3192
▁behind	-3193
▁instit	-3194
▁testing	-3195
▁manufact	-3196
▁establish	-3197
-8	-3198
ps	-3199
▁23	-3200
▁193	-3201
▁Sur	-3202
▁Tod	-3203
▁hot	-3204
ching	-3205
inson	-3206
iques	-3207
▁Coun	-3208
▁date	-3209
▁foot	-3210
▁miss	-3211
▁aware	-3212
ributed	-3213
▁chance	-3214
▁depend	-3215
▁slight	-3216
▁Muslims	-3217
▁largest	-3218
▁patient	-3219
▁surround	-3220
rimination	-3221
▁processes	-3222
rie	-3223
▁Nav	-3224
ittee	-3225
▁Over	-3226
▁quar	-3227
▁rule	-3228
▁offer	-3229
▁answer	-3230
▁spread	-3231
▁critical	-3232
▁observed	-3233
▁intellectual	-3234
IV	-3235
eff	-3236
ocr	-3237
ceed	-3238
▁Jon	-3239
▁Met	-3240
▁beg	-3241
inate	-3242
▁pret	-3243
▁user	-3244
▁Civil	-3245
▁gradu	-3246
▁advant	-3247
▁severe	-3248
abilities	-3249
▁anything	-3250
▁benefits	-3251
▁measures	-3252
ona	-3253
▁Of	-3254
▁mob	-3255
illed	-3256
▁Kore	-3257
▁Plan	-3258
▁goal	-3259
rehens	-3260
▁extra	-3261
▁final	-3262
▁flood	-3263
▁illust	-3264
▁reduced	-3265
▁diabetes	-3266
▁personal	-3267
ests	-3268
▁bab	-3269
▁saw	-3270
iples	-3271
range	-3272
▁Arch	-3273
▁bond	-3274
▁cred	-3275
▁dark	-3276
▁print	-3277
▁easily	-3278
▁figure	-3279
▁trying	-3280
▁Florida	-3281
▁devices	-3282
▁reading	-3283
▁existing	-3284
▁separate	-3285
▁technologies	-3286
Wh	-3287
med	-3288
yal	-3289
▁AN	-3290
ping	-3291
pire	-3292
time	-3293
uous	-3294
▁Sch	-3295
▁Why	-3296
▁got	-3297
▁hom	-3298
▁ult	-3299
ystem	-3300
▁Cong	-3301
▁base	-3302
▁dang	-3303
▁easy	-3304
inated	-3305
▁celeb	-3306
▁helps	-3307
▁offic	-3308
▁Indian	-3309
▁center	-3310
▁police	-3311
▁central	-3312
▁leading	-3313
▁affected	-3314
▁examples	-3315
▁currently	-3316
▁commercial	-3317
udd	-3318
ura	-3319
book	-3320
▁Jud	-3321
▁dry	-3322
▁web	-3323
aging	-3324
▁Prot	-3325
▁Prov	-3326
▁Serv	-3327
▁love	-3328
▁tiss	-3329
ession	-3330
▁audio	-3331
▁steps	-3332
▁expand	-3333
▁forces	-3334
▁useful	-3335
▁located	-3336
▁quickly	-3337
▁emissions	-3338
-4	-3339
IC	-3340
lick	-3341
more	-3342
▁Wol	-3343
▁ban	-3344
bsite	-3345
ruary	-3346
▁2008	-3347
▁ones	-3348
▁daily	-3349
▁prior	-3350
▁annual	-3351
▁season	-3352
▁General	-3353
▁company	-3354
▁November	-3355
▁administ	-3356
▁majority	-3357
▁presence	-3358
▁projects	-3359
▁chemicals	-3360
13	-3361
70	-3362
tm	-3363
ems	-3364
pid	-3365
sec	-3366
oted	-3367
▁Cur	-3368
▁Dan	-3369
▁Net	-3370
▁Rev	-3371
▁div	-3372
known	-3373
oming	-3374
▁harm	-3375
idents	-3376
▁cross	-3377
▁files	-3378
▁genes	-3379
▁grant	-3380
▁river	-3381
▁fossil	-3382
entially	-3383
▁attract	-3384
▁cultural	-3385
▁solution	-3386
▁thinking	-3387
▁description	-3388
▁interesting	-3389
▁responsible	-3390
aur	-3391
men	-3392
gery	-3393
resh	-3394
▁Dec	-3395
▁Web	-3396
▁bad	-3397
▁arri	-3398
▁died	-3399
▁load	-3400
iology	-3401
▁Found	-3402
▁basis	-3403
▁fruit	-3404
iciency	-3405
▁destro	-3406
▁points	-3407
▁strugg	-3408
▁Another	-3409
▁achieve	-3410
▁applied	-3411
▁conflic	-3412
▁journal	-3413
▁mission	-3414
▁strateg	-3415
▁followed	-3416
▁equipment	-3417
▁organisms	-3418
▁completely	-3419
In	-3420
ban	-3421
oud	-3422
oyal	-3423
▁Red	-3424
▁lat	-3425
isher	-3426
▁Your	-3427
▁fair	-3428
▁gave	-3429
▁rare	-3430
▁sleep	-3431
▁placed	-3432
▁Council	-3433
▁Program	-3434
▁failure	-3435
▁foreign	-3436
▁essential	-3437
▁providing	-3438
▁radiation	-3439
iar	-3440
ift	-3441
olic	-3442
▁mut	-3443
riage	-3444
▁pack	-3445
▁sold	-3446
▁stay	-3447
▁told	-3448
▁Trans	-3449
▁foods	-3450
▁night	-3451
oration	-3452
▁August	-3453
▁images	-3454
▁exposed	-3455
▁reasons	-3456
▁weather	-3457
▁challeng	-3458
▁positive	-3459
▁financial	-3460
EL	-3461
▁,	-3462
▁Av	-3463
▁pp	-3464
otic	-3465
rick	-3466
▁pet	-3467
▁sch	-3468
▁tum	-3469
▁Also	-3470
▁qual	-3471
▁drugs	-3472
▁peace	-3473
▁traff	-3474
▁France	-3475
▁compar	-3476
▁former	-3477
▁moment	-3478
▁allowed	-3479
▁ancient	-3480
▁earlier	-3481
▁document	-3482
▁instruct	-3483
▁remained	-3484
▁influence	-3485
▁connection	-3486
25	-3487
met	-3488
que	-3489
yle	-3490
▁CO	-3491
▁Ev	-3492
cast	-3493
pped	-3494
▁Jer	-3495
▁mig	-3496
▁2009	-3497
▁Each	-3498
▁anti	-3499
▁tree	-3500
ensity	-3501
▁autom	-3502
▁breat	-3503
▁cards	-3504
▁fully	-3505
▁negot	-3506
▁licens	-3507
▁physic	-3508
ximately	-3509
▁Charles	-3510
▁October	-3511
▁investig	-3512
▁strength	-3513
-5	-3514
bit	-3515
iox	-3516
▁Mod	-3517
▁rul	-3518
▁tou	-3519
verse	-3520
▁Then	-3521
▁Work	-3522
▁dire	-3523
iences	-3524
▁analy	-3525
▁gives	-3526
▁limit	-3527
▁occup	-3528
▁weeks	-3529
▁worked	-3530
▁College	-3531
▁persons	-3532
▁citizens	-3533
▁proteins	-3534
▁thousands	-3535
▁importance	-3536
▁techniques	-3537
RE	-3538
mar	-3539
▁60	-3540
izes	-3541
phas	-3542
resp	-3543
rian	-3544
▁sen	-3545
▁bran	-3546
▁cool	-3547
▁deal	-3548
▁news	-3549
▁stor	-3550
▁walk	-3551
▁shape	-3552
▁solid	-3553
▁tools	-3554
▁gravel	-3555
izations	-3556
▁Americans	-3557
▁discovered	-3558
:3	-3559
bur	-3560
▁Sw	-3561
aled	-3562
▁Cop	-3563
▁Mex	-3564
▁Sub	-3565
asion	-3566
igned	-3567
▁symb	-3568
▁Their	-3569
▁purch	-3570
ography	-3571
ologist	-3572
▁Energy	-3573
▁bodies	-3574
▁insect	-3575
▁summer	-3576
ifically	-3577
▁Medical	-3578
▁monitor	-3579
▁nuclear	-3580
▁maintain	-3581
▁opportunity	-3582
▁temperatures	-3583
IS	-3584
na	-3585
yp	-3586
ava	-3587
ded	-3588
▁Mc	-3589
▁Pat	-3590
▁Rel	-3591
▁cou	-3592
▁enh	-3593
▁gal	-3594
wards	-3595
▁City	-3596
▁feed	-3597
▁rock	-3598
▁belong	-3599
▁breast	-3600
▁legisl	-3601
▁becomes	-3602
▁economy	-3603
▁nothing	-3604
▁February	-3605
▁bacteria	-3606
▁everything	-3607
▁Information	-3608
ky	-3609
hel	-3610
mit	-3611
▁Fl	-3612
▁TH	-3613
aces	-3614
ancy	-3615
enty	-3616
▁195	-3617
▁Des	-3618
▁inn	-3619
hetic	-3620
▁born	-3621
▁doub	-3622
▁seek	-3623
▁soil	-3624
▁song	-3625
▁table	-3626
▁garden	-3627
▁carried	-3628
▁reports	-3629
▁someone	-3630
▁website	-3631
▁teachers	-3632
▁increases	-3633
▁appropriate	-3634
▁electricity	-3635
ees	-3636
war	-3637
bach	-3638
band	-3639
wide	-3640
▁fem	-3641
▁nor	-3642
acity	-3643
iling	-3644
▁2011	-3645
▁Phys	-3646
osophy	-3647
▁Space	-3648
▁exact	-3649
▁beyond	-3650
▁degree	-3651
▁native	-3652
▁impacts	-3653
▁running	-3654
▁recorded	-3655
▁practices	-3656
80	-3657
oo	-3658
uz	-3659
nes	-3660
ste	-3661
win	-3662
▁Ma	-3663
iber	-3664
rote	-3665
▁Use	-3666
heric	-3667
▁2006	-3668
▁Asia	-3669
▁Inst	-3670
▁Life	-3671
▁Paul	-3672
icking	-3673
itness	-3674
▁adapt	-3675
▁asked	-3676
▁fight	-3677
▁named	-3678
▁quant	-3679
▁effort	-3680
▁office	-3681
▁Mudejar	-3682
▁mention	-3683
▁believed	-3684
▁features	-3685
▁medicine	-3686
▁numerous	-3687
▁construct	-3688
▁experiment	-3689
▁authorities	-3690
AS	-3691
SI	-3692
rs	-3693
joy	-3694
imal	-3695
▁Ser	-3696
▁mer	-3697
▁Thus	-3698
▁desp	-3699
▁wood	-3700
▁older	-3701
▁party	-3702
▁rapid	-3703
▁tomat	-3704
▁detect	-3705
▁friend	-3706
▁habitat	-3707
▁agricult	-3708
▁expected	-3709
▁released	-3710
▁estimated	-3711
▁professor	-3712
▁historical	-3713
▁successful	-3714
▁conservation	-3715
ria	-3716
cial	-3717
ding	-3718
edom	-3719
ocol	-3720
▁hyp	-3721
▁pow	-3722
astic	-3723
▁Mich	-3724
▁guid	-3725
▁royal	-3726
▁storm	-3727
▁Scient	-3728
▁volunt	-3729
▁Project	-3730
▁highest	-3731
▁predict	-3732
▁receive	-3733
▁storage	-3734
▁Students	-3735
▁collection	-3736
htm	-3737
lin	-3738
umin	-3739
erved	-3740
pping	-3741
▁2007	-3742
▁hope	-3743
▁pric	-3744
▁Franc	-3745
▁Green	-3746
▁worth	-3747
▁Church	-3748
▁excess	-3749
▁reform	-3750
▁spirit	-3751
▁turned	-3752
▁values	-3753
▁overall	-3754
▁studied	-3755
▁constant	-3756
▁transfer	-3757
▁Education	-3758
▁Parkinson	-3759
▁direction	-3760
▁typically	-3761
▁generation	-3762
▁identified	-3763
▁industrial	-3764
▁*	-3765
anz	-3766
off	-3767
hood	-3768
vant	-3769
▁Bay	-3770
▁Def	-3771
itect	-3772
▁repe	-3773
▁Court	-3774
▁leave	-3775
▁battle	-3776
▁coming	-3777
▁inform	-3778
▁instru	-3779
▁passed	-3780
▁unique	-3781
▁changed	-3782
▁Republic	-3783
▁wildlife	-3784
▁approaches	-3785
▁discrimination	-3786
alm	-3787
bal	-3788
riz	-3789
just	-3790
▁Aut	-3791
▁Bel	-3792
▁Che	-3793
▁Tex	-3794
▁fix	-3795
▁mis	-3796
▁pip	-3797
▁swe	-3798
aught	-3799
▁(199	-3800
▁note	-3801
▁poly	-3802
elines	-3803
▁drink	-3804
▁initi	-3805
▁round	-3806
▁seven	-3807
ivation	-3808
▁conver	-3809
▁kidney	-3810
▁status	-3811
▁waters	-3812
▁brother	-3813
▁decades	-3814
▁machine	-3815
▁respond	-3816
▁Maryland	-3817
▁membrane	-3818
▁proposed	-3819
▁suggests	-3820
▁recommend	-3821
▁eventually	-3822
▁organization	-3823
AC	-3824
BS	-3825
amm	-3826
rec	-3827
▁(3	-3828
This	-3829
ache	-3830
heim	-3831
ibly	-3832
uses	-3833
▁wond	-3834
▁Elect	-3835
▁Inter	-3836
▁favor	-3837
▁schem	-3838
▁stars	-3839
▁bottom	-3840
▁except	-3841
▁killed	-3842
▁member	-3843
▁Congress	-3844
▁Internet	-3845
▁Mudejars	-3846
▁northern	-3847
▁patterns	-3848
▁discussion	-3849
▁interested	-3850
▁Development	-3851
▁combination	-3852
-19	-3853
-20	-3854
ama	-3855
▁22	-3856
▁Kh	-3857
back	-3858
iece	-3859
pris	-3860
▁MET	-3861
▁Tur	-3862
▁Two	-3863
▁tub	-3864
etics	-3865
estalt	-3866
▁Color	-3867
▁Great	-3868
▁beaut	-3869
▁enter	-3870
▁lived	-3871
▁offers	-3872
▁balance	-3873
▁records	-3874
▁findings	-3875
▁president	-3876
▁structures	-3877
▁requirements	-3878
▁approximately	-3879
zy	-3880
ipal	-3881
onic	-3882
raft	-3883
▁Day	-3884
▁Sea	-3885
▁Sen	-3886
house	-3887
iable	-3888
iance	-3889
▁didn	-3890
▁names	-3891
▁spect	-3892
▁woman	-3893
unction	-3894
▁arrest	-3895
▁Section	-3896
▁convers	-3897
▁destroy	-3898
▁picture	-3899
▁Children	-3900
▁construction	-3901
-6	-3902
HA	-3903
ey	-3904
hma	-3905
char	-3906
enge	-3907
rupt	-3908
cious	-3909
istan	-3910
▁Spec	-3911
▁spin	-3912
▁Today	-3913
▁grass	-3914
▁pregn	-3915
▁wrote	-3916
mission	-3917
▁Africa	-3918
▁George	-3919
▁options	-3920
▁version	-3921
▁village	-3922
▁capacity	-3923
▁commonly	-3924
▁distinct	-3925
▁planning	-3926
▁powerful	-3927
▁biological	-3928
ken	-3929
clus	-3930
rief	-3931
▁Fin	-3932
▁arm	-3933
▁gir	-3934
▁eyes	-3935
▁goes	-3936
▁rise	-3937
▁sect	-3938
▁shut	-3939
▁heavy	-3940
▁input	-3941
▁County	-3942
▁Social	-3943
▁immune	-3944
▁victim	-3945
▁command	-3946
▁letters	-3947
▁promote	-3948
▁molecules	-3949
▁Government	-3950
▁differences	-3951
16	-3952
bed	-3953
unn	-3954
▁0.	-3955
▁5.	-3956
▁Ca	-3957
▁Ge	-3958
ingu	-3959
semb	-3960
zing	-3961
▁Ben	-3962
▁Cap	-3963
▁Ken	-3964
▁Lou	-3965
▁2000	-3966
▁2005	-3967
▁Food	-3968
▁Mars	-3969
▁alle	-3970
▁hous	-3971
▁ille	-3972
gments	-3973
▁Texas	-3974
▁plans	-3975
▁rates	-3976
related	-3977
▁custom	-3978
▁emphas	-3979
▁expert	-3980
▁vision	-3981
▁experts	-3982
▁reality	-3983
▁violence	-3984
▁Alexander	-3985
▁functions	-3986
▁operating	-3987
▁comprehens	-3988
▁alternative	-3989
,'	-3990
ara	-3991
oke	-3992
pir	-3993
▁2,	-3994
greg	-3995
head	-3996
ster	-3997
▁Sum	-3998
▁www	-3999
rence	-4000
▁Once	-4001
▁tour	-4002
▁Union	-4003
▁colon	-4004
▁grand	-4005
▁signs	-4006
▁Museum	-4007
▁Public	-4008
▁colors	-4009
▁giving	-4010
▁leaves	-4011
▁length	-4012
▁marine	-4013
▁models	-4014
▁visual	-4015
▁Profess	-4016
▁Wolbach	-4017
▁purpose	-4018
▁distance	-4019
▁resulting	-4020
▁independent	-4021
OL	-4022
hu	-4023
tes	-4024
ears	-4025
onal	-4026
ovak	-4027
ynam	-4028
▁Mat	-4029
▁Sal	-4030
▁pan	-4031
ellig	-4032
istant	-4033
▁divid	-4034
iations	-4035
▁Virgin	-4036
▁moving	-4037
▁prohib	-4038
▁trials	-4039
▁feature	-4040
▁combined	-4041
▁disorder	-4042
▁domestic	-4043
che	-4044
omb	-4045
omy	-4046
▁Up	-4047
▁ju	-4048
aced	-4049
comm	-4050
omet	-4051
what	-4052
▁Bro	-4053
▁der	-4054
▁pen	-4055
ender	-4056
orial	-4057
umber	-4058
verty	-4059
▁Mill	-4060
▁liqu	-4061
▁Korea	-4062
▁Roman	-4063
▁bound	-4064
▁faith	-4065
▁noted	-4066
▁novel	-4067
▁renew	-4068
▁Commun	-4069
▁Figure	-4070
▁prison	-4071
reatment	-4072
▁appears	-4073
▁learned	-4074
▁poverty	-4075
▁creation	-4076
▁slightly	-4077
▁Wolbachia	-4078
▁advantage	-4079
▁formation	-4080
▁reduction	-4081
▁Foundation	-4082
▁atmosphere	-4083
▁principles	-4084
▁distribution	-4085
15	-4086
EC	-4087
ss	-4088
▁:	-4089
aste	-4090
eces	-4091
load	-4092
▁Dem	-4093
▁Rab	-4094
akers	-4095
force	-4096
idden	-4097
inity	-4098
▁mode	-4099
▁phen	-4100
▁prof	-4101
▁road	-4102
▁scen	-4103
▁susp	-4104
itable	-4105
▁compl	-4106
▁enjoy	-4107
▁fresh	-4108
▁neigh	-4109
▁pages	-4110
▁stage	-4111
▁trend	-4112
osystem	-4113
▁Middle	-4114
▁Russia	-4115
▁perman	-4116
▁explain	-4117
▁harvest	-4118
▁maximum	-4119
▁teacher	-4120
▁discover	-4121
▁remember	-4122
▁resulted	-4123
▁languages	-4124
▁performed	-4125
▁background	-4126
▁relatively	-4127
▁Environmental	-4128
8)	-4129
su	-4130
”,	-4131
umn	-4132
▁(4	-4133
olid	-4134
ords	-4135
rair	-4136
▁Lat	-4137
▁Loc	-4138
▁Vol	-4139
▁cru	-4140
▁mag	-4141
▁won	-4142
ictor	-4143
▁ball	-4144
▁vary	-4145
▁west	-4146
▁inact	-4147
▁minor	-4148
amental	-4149
▁layers	-4150
▁speech	-4151
▁widely	-4152
▁context	-4153
▁display	-4154
▁meeting	-4155
▁therapy	-4156
▁towards	-4157
▁frequently	-4158
▁opportunities	-4159
DS	-4160
IP	-4161
key	-4162
ped	-4163
▁AM	-4164
▁Bu	-4165
cycl	-4166
orks	-4167
osen	-4168
▁Ber	-4169
▁ign	-4170
▁upd	-4171
▁Just	-4172
▁argu	-4173
▁opin	-4174
▁tape	-4175
▁tool	-4176
porary	-4177
▁store	-4178
▁watch	-4179
respond	-4180
▁adults	-4181
▁landsc	-4182
▁patent	-4183
▁spring	-4184
▁Consuls	-4185
▁England	-4186
▁election	-4187
▁extremely	-4188
▁facilities	-4189
▁introduced	-4190
.'	-4191
▁=	-4192
igen	-4193
lers	-4194
▁hur	-4195
▁isn	-4196
▁unf	-4197
oring	-4198
ously	-4199
press	-4200
▁clim	-4201
▁emot	-4202
▁gain	-4203
▁gets	-4204
encies	-4205
▁About	-4206
▁Carol	-4207
▁Jonah	-4208
▁Using	-4209
▁coord	-4210
▁email	-4211
▁links	-4212
▁moved	-4213
▁piece	-4214
▁scale	-4215
aughter	-4216
pective	-4217
▁Mexico	-4218
▁anyone	-4219
▁cities	-4220
▁fields	-4221
▁fisher	-4222
▁Natural	-4223
▁consequ	-4224
▁despite	-4225
▁friends	-4226
▁articles	-4227
▁concepts	-4228
▁contrast	-4229
▁improved	-4230
▁instance	-4231
▁marriage	-4232
▁completed	-4233
▁interests	-4234
▁expression	-4235
▁operations	-4236
▁professional	-4237
▁communication	-4238
▁characteristics	-4239
90	-4240
co	-4241
ha	-4242
”.	-4243
ini	-4244
raw	-4245
▁26	-4246
▁__	-4247
abil	-4248
▁Ext	-4249
▁Mil	-4250
▁egg	-4251
▁fig	-4252
▁reb	-4253
▁syn	-4254
apers	-4255
▁bone	-4256
▁core	-4257
▁crop	-4258
▁elim	-4259
▁isol	-4260
▁jury	-4261
▁lung	-4262
ifying	-4263
▁galax	-4264
▁partn	-4265
▁trees	-4266
▁Valenc	-4267
▁listen	-4268
▁Russian	-4269
▁Western	-4270
▁release	-4271
▁creating	-4272
▁prepared	-4273
▁previously	-4274
▁experienced	-4275
▁immediately	-4276
rm	-4277
rig	-4278
▁28	-4279
▁du	-4280
west	-4281
wood	-4282
zech	-4283
▁Gal	-4284
▁ath	-4285
going	-4286
iding	-4287
olved	-4288
risis	-4289
▁burn	-4290
▁conv	-4291
▁gold	-4292
▁ship	-4293
▁weak	-4294
▁weap	-4295
▁Louis	-4296
▁exhib	-4297
▁horse	-4298
▁meant	-4299
ossible	-4300
▁expect	-4301
▁helped	-4302
▁mathem	-4303
▁mostly	-4304
▁Central	-4305
▁obvious	-4306
▁perfect	-4307
▁regions	-4308
▁occurred	-4309
▁policies	-4310
▁frequency	-4311
▁interpret	-4312
▁resistance	-4313
▁consumption	-4314
-7	-4315
5)	-4316
equ	-4317
unk	-4318
▁fo	-4319
aign	-4320
▁300	-4321
▁Its	-4322
▁buy	-4323
▁via	-4324
aimed	-4325
craft	-4326
▁Lear	-4327
▁Note	-4328
▁Tanz	-4329
▁coal	-4330
▁hear	-4331
▁kept	-4332
▁rain	-4333
▁salt	-4334
▁goals	-4335
▁views	-4336
▁ancest	-4337
▁circum	-4338
▁excell	-4339
▁prefer	-4340
▁served	-4341
▁stated	-4342
▁survey	-4343
▁Federal	-4344
▁Islamic	-4345
▁counter	-4346
▁details	-4347
▁finally	-4348
▁showing	-4349
▁changing	-4350
▁reducing	-4351
▁survival	-4352
▁discovery	-4353
▁efficient	-4354
▁primarily	-4355
▁Technology	-4356
▁vegetables	-4357
▁Syncopation	-4358
▁constitution	-4359
1)	-4360
ux	-4361
ams	-4362
des	-4363
rey	-4364
▁Mr	-4365
down	-4366
ford	-4367
omic	-4368
▁Jes	-4369
▁Sun	-4370
▁alt	-4371
▁hus	-4372
▁map	-4373
▁1990	-4374
▁2013	-4375
▁Both	-4376
▁Dist	-4377
▁Wind	-4378
▁bord	-4379
▁fast	-4380
▁fine	-4381
▁sort	-4382
▁stim	-4383
heimer	-4384
ressed	-4385
▁Czech	-4386
▁amino	-4387
▁honor	-4388
▁inhib	-4389
▁staff	-4390
▁tried	-4391
▁upper	-4392
▁manner	-4393
▁sounds	-4394
▁stories	-4395
unications	-4396
▁component	-4397
▁pollution	-4398
▁practical	-4399
▁reference	-4400
▁employment	-4401
▁sufficient	-4402
▁significantly	-4403
14	-4404
If	-4405
RO	-4406
bl	-4407
ado	-4408
tle	-4409
urd	-4410
amer	-4411
apes	-4412
fort	-4413
iant	-4414
iled	-4415
roph	-4416
▁HIV	-4417
▁Heb	-4418
▁Let	-4419
▁bed	-4420
▁dro	-4421
▁hun	-4422
▁sem	-4423
▁baby	-4424
▁cand	-4425
▁huge	-4426
▁pray	-4427
▁Labor	-4428
▁categ	-4429
▁schol	-4430
▁wrong	-4431
▁claims	-4432
▁height	-4433
▁African	-4434
▁Further	-4435
▁clinical	-4436
▁contract	-4437
▁director	-4438
▁measured	-4439
▁continues	-4440
▁emergency	-4441
CE	-4442
DA	-4443
UR	-4444
nic	-4445
▁70	-4446
▁80	-4447
▁La	-4448
▁mo	-4449
▁III	-4450
▁Pal	-4451
▁voc	-4452
▁2004	-4453
▁crim	-4454
▁stem	-4455
espite	-4456
rairie	-4457
▁Brown	-4458
▁apply	-4459
▁inher	-4460
▁spent	-4461
▁taxes	-4462
▁teeth	-4463
ocratic	-4464
▁Island	-4465
▁middle	-4466
▁territ	-4467
▁tissue	-4468
▁parties	-4469
▁decrease	-4470
▁infection	-4471
▁regarding	-4472
▁statement	-4473
▁Commission	-4474
17	-4475
ii	-4476
ye	-4477
▁27	-4478
▁AS	-4479
▁pi	-4480
otes	-4481
rees	-4482
▁186	-4483
▁box	-4484
▁inh	-4485
▁nav	-4486
erson	-4487
▁Camb	-4488
▁Disc	-4489
▁exec	-4490
▁paid	-4491
rition	-4492
▁Every	-4493
▁Direct	-4494
▁announ	-4495
▁contem	-4496
▁credit	-4497
▁actions	-4498
▁clearly	-4499
▁complic	-4500
▁defects	-4501
▁forward	-4502
▁justice	-4503
▁Francisc	-4504
▁everyone	-4505
▁reaction	-4506
▁referred	-4507
▁returned	-4508
▁toxicity	-4509
▁concerned	-4510
▁particles	-4511
▁correspond	-4512
▁revolution	-4513
▁recommended	-4514
*]	-4515
▁HG	-4516
anes	-4517
uted	-4518
▁Ill	-4519
▁THE	-4520
▁Tor	-4521
▁haz	-4522
▁hop	-4523
▁mel	-4524
atric	-4525
imens	-4526
▁2002	-4527
▁Fore	-4528
▁Java	-4529
▁cert	-4530
▁disk	-4531
▁diss	-4532
▁jobs	-4533
▁util	-4534
▁wife	-4535
cyclop	-4536
▁Ocean	-4537
▁cycle	-4538
▁serve	-4539
▁Rights	-4540
▁extent	-4541
▁issued	-4542
ographic	-4543
ologists	-4544
standing	-4545
▁Despite	-4546
▁causing	-4547
▁concern	-4548
▁funding	-4549
▁message	-4550
▁western	-4551
▁hundreds	-4552
▁universe	-4553
▁containing	-4554
▁determined	-4555
▁organizations	-4556
CC	-4557
ya	-4558
[*]	-4559
ana	-4560
zer	-4561
▁90	-4562
▁Mo	-4563
ault	-4564
cles	-4565
exam	-4566
othe	-4567
spec	-4568
step	-4569
ygen	-4570
▁Alz	-4571
▁Jac	-4572
▁Mem	-4573
▁coc	-4574
▁pun	-4575
ormal	-4576
▁Wild	-4577
▁knew	-4578
▁pred	-4579
atform	-4580
ipping	-4581
▁Organ	-4582
▁Rober	-4583
▁calls	-4584
▁sugar	-4585
▁users	-4586
▁waste	-4587
isation	-4588
▁easier	-4589
▁famous	-4590
▁played	-4591
▁prices	-4592
▁Chapter	-4593
▁decided	-4594
▁illness	-4595
▁install	-4596
▁leaders	-4597
▁morning	-4598
▁becoming	-4599
▁conflict	-4600
▁discussed	-4601
▁presented	-4602
▁challenges	-4603
38	-4604
ev	-4605
alle	-4606
cont	-4607
iful	-4608
lant	-4609
▁Ang	-4610
▁Bet	-4611
▁___	-4612
▁ice	-4613
▁ves	-4614
agers	-4615
▁clos	-4616
▁dogs	-4617
▁mice	-4618
▁sick	-4619
ishing	-4620
▁absor	-4621
▁heard	-4622
▁joint	-4623
▁truth	-4624
▁Office	-4625
▁asthma	-4626
▁begins	-4627
▁choice	-4628
▁forced	-4629
▁income	-4630
▁island	-4631
▁liquid	-4632
▁photos	-4633
▁remove	-4634
▁defined	-4635
▁drought	-4636
▁happens	-4637
▁illegal	-4638
▁kingdom	-4639
▁removed	-4640
▁Alzheimer	-4641
▁perception	-4642
▁procedures	-4643
▁concentrations	-4644
AP	-4645
ano	-4646
▁35	-4647
hors	-4648
itis	-4649
rant	-4650
ston	-4651
▁400	-4652
▁Don	-4653
▁Nor	-4654
▁fro	-4655
▁sac	-4656
erate	-4657
ifies	-4658
▁Book	-4659
▁Jose	-4660
▁Test	-4661
▁army	-4662
▁coop	-4663
▁trig	-4664
ective	-4665
▁Greek	-4666
▁acids	-4667
▁newsp	-4668
▁photo	-4669
▁price	-4670
▁Cancer	-4671
▁Prince	-4672
▁Victor	-4673
▁eating	-4674
▁leader	-4675
▁pieces	-4676
▁tested	-4677
▁element	-4678
▁finding	-4679
▁freedom	-4680
▁Hospital	-4681
▁architect	-4682
▁operation	-4683
▁otherwise	-4684
▁components	-4685
▁specifically	-4686
78	-4687
:4	-4688
Ch	-4689
HO	-4690
rot	-4691
:10.	-4692
inos	-4693
mark	-4694
ndom	-4695
reet	-4696
wing	-4697
▁Rem	-4698
iring	-4699
▁rich	-4700
▁send	-4701
earing	-4702
▁phase	-4703
▁faster	-4704
▁linked	-4705
▁recept	-4706
▁winter	-4707
▁convent	-4708
▁initial	-4709
▁nations	-4710
▁surgery	-4711
▁describe	-4712
▁selected	-4713
▁southern	-4714
▁supplies	-4715
▁teaching	-4716
▁sensitive	-4717
▁technique	-4718
▁impossible	-4719
▁educational	-4720
▁sustainable	-4721
▁increasingly	-4722
▁measurements	-4723
▁participants	-4724
BN	-4725
LL	-4726
iah	-4727
▁45	-4728
omas	-4729
part	-4730
rust	-4731
usal	-4732
▁Nol	-4733
▁cry	-4734
▁esc	-4735
▁rat	-4736
imize	-4737
ingly	-4738
ishes	-4739
place	-4740
▁Lake	-4741
▁Such	-4742
▁fill	-4743
▁pump	-4744
▁task	-4745
▁Micro	-4746
▁accur	-4747
▁dynam	-4748
▁incor	-4749
▁items	-4750
▁kinds	-4751
▁perce	-4752
▁trust	-4753
▁Slovak	-4754
▁please	-4755
▁amounts	-4756
▁conclud	-4757
▁eastern	-4758
▁involve	-4759
▁offered	-4760
▁organic	-4761
▁station	-4762
▁univers	-4763
▁platform	-4764
▁sequence	-4765
▁substant	-4766
ortunately	-4767
▁Professor	-4768
▁Therefore	-4769
▁emissivity	-4770
▁demonstrated	-4771
2)	-4772
CD	-4773
CR	-4774
GO	-4775
IA	-4776
dem	-4777
ods	-4778
▁Sk	-4779
▁dat	-4780
anged	-4781
anish	-4782
arrow	-4783
eline	-4784
enced	-4785
ondon	-4786
ridge	-4787
rolog	-4788
▁Ariz	-4789
▁Budd	-4790
▁Mart	-4791
▁Rich	-4792
▁Step	-4793
▁mere	-4794
ioxide	-4795
ribute	-4796
▁Canad	-4797
▁innov	-4798
▁choose	-4799
▁county	-4800
▁latest	-4801
▁random	-4802
▁regist	-4803
▁secret	-4804
▁sexual	-4805
▁adopted	-4806
▁divided	-4807
▁farmers	-4808
▁greatly	-4809
▁largely	-4810
▁library	-4811
▁quarter	-4812
▁reached	-4813
▁classroom	-4814
▁contribut	-4815
▁organized	-4816
▁permanent	-4817
▁suggested	-4818
▁supported	-4819
▁electrical	-4820
▁profession	-4821
▁treatments	-4822
19	-4823
II	-4824
OT	-4825
ING	-4826
▁Mu	-4827
▁Ob	-4828
ares	-4829
athy	-4830
berg	-4831
long	-4832
▁Som	-4833
▁fif	-4834
▁hit	-4835
▁ple	-4836
iondo	-4837
ndrom	-4838
romos	-4839
▁fert	-4840
▁mour	-4841
inding	-4842
ooking	-4843
▁Stand	-4844
▁Those	-4845
▁assum	-4846
▁therm	-4847
▁advice	-4848
▁closed	-4849
▁crisis	-4850
▁expans	-4851
▁sports	-4852
▁vessel	-4853
▁hearing	-4854
▁husband	-4855
▁witness	-4856
▁Tanzania	-4857
▁Virginia	-4858
▁obtained	-4859
▁properly	-4860
▁producing	-4861
LE	-4862
yr	-4863
bre	-4864
ios	-4865
▁Op	-4866
adel	-4867
bing	-4868
edic	-4869
▁Hen	-4870
▁Lol	-4871
▁Yet	-4872
▁asp	-4873
abled	-4874
ansas	-4875
ensus	-4876
tical	-4877
▁bill	-4878
▁blue	-4879
▁feud	-4880
anging	-4881
▁Black	-4882
▁Jacob	-4883
▁Jesus	-4884
▁board	-4885
▁chief	-4886
▁guide	-4887
▁notes	-4888
▁radio	-4889
igenous	-4890
ulating	-4891
▁failed	-4892
▁female	-4893
▁formal	-4894
▁letter	-4895
▁possess	-4896
▁samples	-4897
▁appeared	-4898
▁consists	-4899
▁millions	-4900
▁authority	-4901
▁buildings	-4902
▁connected	-4903
▁mechanism	-4904
▁atmospheric	-4905
▁Constitution	-4906
▁institutions	-4907
18	-4908
CO	-4909
po	-4910
asm	-4911
alls	-4912
ilit	-4913
indu	-4914
▁Eff	-4915
▁Lab	-4916
▁Old	-4917
▁gar	-4918
ament	-4919
board	-4920
▁News	-4921
▁crew	-4922
▁hour	-4923
▁neur	-4924
ademic	-4925
▁Class	-4926
▁Click	-4927
▁Osage	-4928
▁mouth	-4929
▁Robert	-4930
▁Second	-4931
▁actual	-4932
▁happen	-4933
▁invent	-4934
▁notice	-4935
▁topics	-4936
▁yellow	-4937
▁Company	-4938
▁answers	-4939
▁confirm	-4940
▁fishing	-4941
▁volunte	-4942
▁Loliondo	-4943
▁collabor	-4944
▁estimate	-4945
▁resource	-4946
▁starting	-4947
▁struggle	-4948
▁supposed	-4949
▁vehicles	-4950
▁Francisco	-4951
▁challenge	-4952
▁landscape	-4953
▁strategies	-4954
▁surrounding	-4955
-9	-4956
AD	-4957
RI	-4958
oma	-4959
ota	-4960
▁6.	-4961
▁Hy	-4962
▁Ro	-4963
cers	-4964
icit	-4965
mond	-4966
odes	-4967
osph	-4968
▁Him	-4969
▁Oil	-4970
▁lib	-4971
▁lit	-4972
itors	-4973
▁1995	-4974
▁cast	-4975
▁east	-4976
▁meat	-4977
▁unit	-4978
▁Power	-4979
▁aster	-4980
▁depth	-4981
▁doubt	-4982
▁immig	-4983
▁rotor	-4984
▁Howard	-4985
▁Miller	-4986
▁Poland	-4987
▁behavi	-4988
▁belief	-4989
▁chosen	-4990
▁sample	-4991
▁saying	-4992
▁server	-4993
▁chronic	-4994
▁dioxide	-4995
▁intended	-4996
▁mathemat	-4997
▁Australia	-4998
▁independence	-4999
55	-5000
ett	-5001
▁ST	-5002
▁||	-5003
anks	-5004
ctic	-5005
iced	-5006
olve	-5007
▁Bul	-5008
▁Pri	-5009
▁fly	-5010
▁nit	-5011
▁phr	-5012
▁rab	-5013
▁sin	-5014
celer	-5015
elled	-5016
iform	-5017
inent	-5018
▁2001	-5019
▁2003	-5020
▁Gulf	-5021
▁Home	-5022
▁PMID	-5023
▁recl	-5024
▁save	-5025
▁spot	-5026
adelph	-5027
stream	-5028
venile	-5029
▁Women	-5030
▁advoc	-5031
▁antib	-5032
▁facts	-5033
▁risks	-5034
▁sides	-5035
▁tells	-5036
erences	-5037
▁Hebrew	-5038
▁Nature	-5039
▁astron	-5040
▁output	-5041
▁volume	-5042
▁wonder	-5043
▁Service	-5044
▁attacks	-5045
▁comment	-5046
▁connect	-5047
▁doctors	-5048
▁exactly	-5049
▁helping	-5050
▁setting	-5051
roduction	-5052
▁Valencia	-5053
▁advanced	-5054
▁campaign	-5055
▁concerns	-5056
▁district	-5057
▁infected	-5058
▁documents	-5059
▁Philadelph	-5060
▁literature	-5061
▁recognized	-5062
▁effectively	-5063
▁engineering	-5064
▁governments	-5065
29	-5066
45	-5067
89	-5068
CL	-5069
can	-5070
ibl	-5071
teb	-5072
▁Bi	-5073
eles	-5074
well	-5075
▁Ret	-5076
▁gun	-5077
▁mic	-5078
inant	-5079
itage	-5080
oples	-5081
▁Week	-5082
▁defe	-5083
▁doll	-5084
▁snow	-5085
▁tiny	-5086
▁Grass	-5087
▁acres	-5088
▁phone	-5089
▁stock	-5090
▁teach	-5091
▁London	-5092
▁Please	-5093
▁adding	-5094
▁adjust	-5095
▁houses	-5096
▁limits	-5097
▁oxygen	-5098
▁raised	-5099
▁shared	-5100
riptions	-5101
▁Arizona	-5102
▁Control	-5103
▁Spanish	-5104
▁appoint	-5105
▁explore	-5106
▁extract	-5107
▁unknown	-5108
▁Canadian	-5109
▁employed	-5110
▁explains	-5111
▁subjects	-5112
▁ecosystem	-5113
▁excellent	-5114
▁locations	-5115
▁mentioned	-5116
iodiversity	-5117
▁controlled	-5118
▁laboratory	-5119
▁relationships	-5120
7)	-5121
St	-5122
UN	-5123
IDS	-5124
col	-5125
eal	-5126
enh	-5127
mew	-5128
ras	-5129
eren	-5130
ship	-5131
vity	-5132
▁Cle	-5133
▁Mal	-5134
▁OBC	-5135
▁Ste	-5136
▁Ter	-5137
▁cos	-5138
▁fle	-5139
erals	-5140
icted	-5141
oking	-5142
orted	-5143
ville	-5144
▁Dise	-5145
▁dial	-5146
▁felt	-5147
▁fort	-5148
▁gone	-5149
▁onto	-5150
▁synt	-5151
▁Guide	-5152
▁Title	-5153
▁chlor	-5154
▁fewer	-5155
▁hydro	-5156
▁patch	-5157
▁route	-5158
▁thick	-5159
itivity	-5160
iveness	-5161
▁Atlant	-5162
▁Thomas	-5163
▁athlet	-5164
▁career	-5165
▁marked	-5166
▁sector	-5167
▁slowly	-5168
▁strike	-5169
▁unless	-5170
ognitive	-5171
▁Library	-5172
▁Through	-5173
▁Windows	-5174
▁authors	-5175
▁minimum	-5176
▁virtual	-5177
▁vitamin	-5178
▁Ministry	-5179
▁allowing	-5180
▁electron	-5181
▁generate	-5182
▁hydrogen	-5183
▁phenomen	-5184
▁relevant	-5185
▁sections	-5186
▁sentence	-5187
▁collected	-5188
▁expressed	-5189
▁regularly	-5190
▁competition	-5191
▁manufacture	-5192
yt	-5193
ael	-5194
ita	-5195
iva	-5196
mas	-5197
rat	-5198
tto	-5199
▁31	-5200
▁AT	-5201
flow	-5202
html	-5203
oric	-5204
▁500	-5205
▁Ham	-5206
▁NGO	-5207
▁doi	-5208
▁irr	-5209
▁raw	-5210
avery	-5211
ested	-5212
▁Arts	-5213
▁Hand	-5214
▁Have	-5215
▁Last	-5216
▁Mass	-5217
▁Only	-5218
▁Viet	-5219
▁blog	-5220
▁insp	-5221
▁mamm	-5222
▁root	-5223
▁vast	-5224
▁Early	-5225
▁Peter	-5226
▁brief	-5227
▁graph	-5228
lements	-5229
tenance	-5230
▁Econom	-5231
▁batter	-5232
▁broken	-5233
▁critic	-5234
▁window	-5235
▁aspects	-5236
▁centers	-5237
▁chapter	-5238
▁focused	-5239
▁replace	-5240
▁surpris	-5241
▁daughter	-5242
▁external	-5243
▁familiar	-5244
▁regional	-5245
▁religion	-5246
cyclopedia	-5247
▁Resources	-5248
▁explained	-5249
▁molecular	-5250
▁monitoring	-5251
▁experiments	-5252
▁fundamental	-5253
ca	-5254
2).	-5255
lar	-5256
ula	-5257
vis	-5258
||1	-5259
▁Di	-5260
ager	-5261
aped	-5262
bert	-5263
irty	-5264
king	-5265
lamm	-5266
such	-5267
warf	-5268
▁Get	-5269
▁Kar	-5270
▁Que	-5271
▁Rad	-5272
▁Yes	-5273
▁aid	-5274
▁anx	-5275
▁row	-5276
▁wet	-5277
▁win	-5278
isted	-5279
ucose	-5280
▁Data	-5281
▁deck	-5282
▁iron	-5283
▁male	-5284
▁trou	-5285
estone	-5286
mework	-5287
rating	-5288
sembly	-5289
▁Sever	-5290
▁abuse	-5291
▁chart	-5292
▁grown	-5293
▁index	-5294
▁looks	-5295
▁metab	-5296
▁mainly	-5297
▁remote	-5298
▁slaves	-5299
▁stable	-5300
▁wealth	-5301
aturally	-5302
▁Italian	-5303
▁granted	-5304
▁gravels	-5305
▁leaving	-5306
▁typical	-5307
▁whereas	-5308
▁Addition	-5309
▁intellig	-5310
▁internal	-5311
▁involves	-5312
▁normally	-5313
▁restrict	-5314
▁straight	-5315
▁assessment	-5316
▁assistance	-5317
▁medications	-5318
▁potentially	-5319
▁Philadelphia	-5320
communications	-5321
▁comprehensive	-5322
23	-5323
66	-5324
ION	-5325
▁Ap	-5326
alse	-5327
east	-5328
eria	-5329
esis	-5330
ompl	-5331
oned	-5332
rist	-5333
▁Bru	-5334
▁Div	-5335
▁Hel	-5336
▁Out	-5337
▁Abra	-5338
▁Cast	-5339
▁Good	-5340
▁Hung	-5341
▁Like	-5342
▁shar	-5343
employ	-5344
orical	-5345
roduct	-5346
roscop	-5347
urance	-5348
yright	-5349
▁topic	-5350
▁virus	-5351
ructure	-5352
uration	-5353
▁Columb	-5354
▁bright	-5355
▁candid	-5356
▁inject	-5357
▁jurors	-5358
▁pretty	-5359
▁wanted	-5360
▁acceler	-5361
▁biology	-5362
▁college	-5363
▁Sciences	-5364
▁comments	-5365
▁detailed	-5366
▁hospital	-5367
▁repeated	-5368
▁somewhat	-5369
▁villages	-5370
▁visitors	-5371
ifications	-5372
▁breathing	-5373
▁committee	-5374
▁efficiency	-5375
▁possibility	-5376
CI	-5377
DE	-5378
mad	-5379
pat	-5380
pha	-5381
▁("	-5382
arsh	-5383
hand	-5384
itch	-5385
oice	-5386
oral	-5387
oved	-5388
▁Any	-5389
▁Ast	-5390
▁EPA	-5391
▁Pot	-5392
▁spl	-5393
chers	-5394
plant	-5395
point	-5396
▁Free	-5397
▁ISBN	-5398
▁Long	-5399
▁Miss	-5400
▁gall	-5401
▁mist	-5402
▁shop	-5403
▁wave	-5404
▁zero	-5405
▁ready	-5406
▁toler	-5407
▁touch	-5408
▁waves	-5409
resents	-5410
▁commit	-5411
▁judges	-5412
▁launch	-5413
▁symbol	-5414
▁twenty	-5415
esthetic	-5416
▁Studies	-5417
▁accompl	-5418
▁claimed	-5419
▁degrees	-5420
▁feeling	-5421
▁peoples	-5422
▁subsequ	-5423
▁survive	-5424
▁weapons	-5425
▁apparent	-5426
▁asteroid	-5427
▁bullying	-5428
▁drinking	-5429
▁recovery	-5430
▁agreement	-5431
▁computers	-5432
▁describes	-5433
▁extensive	-5434
▁naturally	-5435
▁philosophy	-5436
▁concentrate	-5437
ko	-5438
-12	-5439
iot	-5440
nam	-5441
oto	-5442
▁3,	-5443
▁AP	-5444
abul	-5445
ario	-5446
asts	-5447
burg	-5448
care	-5449
ulpt	-5450
▁Ask	-5451
▁Bas	-5452
▁End	-5453
▁rub	-5454
ivery	-5455
oster	-5456
works	-5457
▁Post	-5458
▁drop	-5459
▁fold	-5460
▁scan	-5461
atever	-5462
ortion	-5463
▁Where	-5464
▁click	-5465
▁colle	-5466
▁conqu	-5467
▁homes	-5468
▁nutri	-5469
▁presc	-5470
▁sweet	-5471
▁tumor	-5472
▁Darwin	-5473
▁Joseph	-5474
▁afford	-5475
▁column	-5476
▁ethnic	-5477
▁explan	-5478
▁fruits	-5479
▁grains	-5480
▁hazard	-5481
▁manage	-5482
▁refers	-5483
▁reject	-5484
▁scheme	-5485
▁classes	-5486
▁covered	-5487
▁neither	-5488
▁operate	-5489
▁underst	-5490
▁Colorado	-5491
▁District	-5492
▁achieved	-5493
▁attached	-5494
▁directed	-5495
▁facility	-5496
▁launched	-5497
▁pictures	-5498
▁dangerous	-5499
▁selection	-5500
▁Revolution	-5501
▁instrument	-5502
▁translated	-5503
▁implemented	-5504
▁responsibility	-5505
4)	-5506
96	-5507
AM	-5508
fe	-5509
gs	-5510
▁36	-5511
body	-5512
oven	-5513
reed	-5514
that	-5515
then	-5516
umul	-5517
▁Den	-5518
▁Pub	-5519
▁nob	-5520
▁tor	-5521
etime	-5522
▁Exam	-5523
▁Ross	-5524
▁Sand	-5525
▁Well	-5526
▁horm	-5527
▁mixt	-5528
▁pure	-5529
astern	-5530
change	-5531
vision	-5532
▁House	-5533
▁White	-5534
▁brown	-5535
▁floor	-5536
▁games	-5537
▁girls	-5538
▁immun	-5539
▁reven	-5540
▁sands	-5541
▁style	-5542
▁title	-5543
imental	-5544
▁Global	-5545
▁Review	-5546
▁backup	-5547
▁blocks	-5548
▁disapp	-5549
▁opened	-5550
▁prepar	-5551
▁secure	-5552
▁stages	-5553
▁consult	-5554
▁counsel	-5555
▁follows	-5556
▁massive	-5557
▁neurons	-5558
▁prairie	-5559
▁syndrom	-5560
▁victims	-5561
▁happened	-5562
▁incorpor	-5563
▁officers	-5564
▁centuries	-5565
▁expansion	-5566
▁substances	-5567
▁threatened	-5568
▁regulations	-5569
▁negotiations	-5570
73	-5571
75	-5572
EM	-5573
RC	-5574
cd	-5575
▁)	-5576
ago	-5577
ani	-5578
gia	-5579
lls	-5580
pre	-5581
▁4,	-5582
▁IN	-5583
▁aw	-5584
▁ly	-5585
cies	-5586
dden	-5587
idge	-5588
racy	-5589
tion	-5590
ulin	-5591
▁Abd	-5592
▁Obs	-5593
▁Ray	-5594
▁Sou	-5595
▁Ver	-5596
▁suc	-5597
ceans	-5598
hesis	-5599
oting	-5600
using	-5601
▁Make	-5602
▁fell	-5603
▁shot	-5604
▁Group	-5605
▁bones	-5606
▁cloth	-5607
▁merch	-5608
▁moist	-5609
▁multi	-5610
▁rough	-5611
▁spend	-5612
▁urban	-5613
clusion	-5614
itative	-5615
▁Arabic	-5616
▁agency	-5617
▁charge	-5618
▁latter	-5619
▁looked	-5620
▁satell	-5621
▁sought	-5622
▁Nations	-5623
▁calcium	-5624
▁insects	-5625
▁keeping	-5626
▁managed	-5627
▁vehicle	-5628
▁circumst	-5629
▁mourning	-5630
▁neighbor	-5631
▁Committee	-5632
▁decisions	-5633
▁depending	-5634
▁destroyed	-5635
▁electrons	-5636
▁existence	-5637
▁generated	-5638
▁reclaimed	-5639
▁consistent	-5640
▁continuous	-5641
▁inactivation	-5642
US	-5643
coh	-5644
ean	-5645
orr	-5646
zil	-5647
▁7.	-5648
▁Pt	-5649
▁UK	-5650
▁km	-5651
http	-5652
iest	-5653
miss	-5654
rete	-5655
▁150	-5656
▁Ara	-5657
▁Fra	-5658
▁Mah	-5659
▁Spe	-5660
▁bin	-5661
▁pal	-5662
▁sav	-5663
▁sky	-5664
▁vul	-5665
arity	-5666
azine	-5667
▁bank	-5668
▁fing	-5669
▁pull	-5670
▁runs	-5671
illing	-5672
▁Frank	-5673
▁Grand	-5674
▁Langu	-5675
▁Latin	-5676
▁Navaj	-5677
▁dwarf	-5678
▁goods	-5679
▁sandy	-5680
▁scene	-5681
▁Academ	-5682
▁Agency	-5683
▁Arctic	-5684
▁Grassi	-5685
▁Kansas	-5686
▁accomp	-5687
▁church	-5688
▁defend	-5689
▁flight	-5690
▁forget	-5691
▁listed	-5692
▁medium	-5693
▁therap	-5694
▁Current	-5695
▁Germany	-5696
▁constit	-5697
▁depends	-5698
▁driving	-5699
▁glucose	-5700
▁hunting	-5701
▁periods	-5702
▁portion	-5703
▁vaccine	-5704
▁warming	-5705
ictionary	-5706
▁Director	-5707
▁academic	-5708
▁contamin	-5709
▁delivery	-5710
▁extended	-5711
▁identity	-5712
▁yourself	-5713
▁expensive	-5714
▁residents	-5715
▁Convention	-5716
▁depression	-5717
▁irrigation	-5718
▁mechanical	-5719
▁instructions	-5720
▁transmission	-5721
An	-5722
CP	-5723
EE	-5724
ao	-5725
ka	-5726
ki	-5727
no	-5728
aks	-5729
den	-5730
gor	-5731
mes	-5732
ogl	-5733
oln	-5734
uit	-5735
xts	-5736
zed	-5737
aker	-5738
hyth	-5739
mail	-5740
ooth	-5741
pler	-5742
▁CDs	-5743
▁Inf	-5744
▁Mel	-5745
▁Ref	-5746
▁Sud	-5747
▁aqu	-5748
▁err	-5749
▁kin	-5750
▁tow	-5751
asses	-5752
icked	-5753
throp	-5754
▁Linc	-5755
▁arms	-5756
▁narr	-5757
▁nest	-5758
▁sell	-5759
called	-5760
usalem	-5761
▁Liter	-5762
▁Table	-5763
▁depos	-5764
▁hyper	-5765
▁twice	-5766
inating	-5767
▁Empire	-5768
▁applet	-5769
▁implic	-5770
▁indeed	-5771
▁minute	-5772
▁rising	-5773
▁sculpt	-5774
▁sudden	-5775
idential	-5776
▁Britain	-5777
▁Lincoln	-5778
▁Network	-5779
▁facilit	-5780
▁figures	-5781
▁matters	-5782
▁paralle	-5783
▁precise	-5784
▁scholars	-5785
▁beautiful	-5786
▁household	-5787
▁medicines	-5788
▁recognize	-5789
▁substance	-5790
▁Scientists	-5791
▁represents	-5792
▁situations	-5793
▁sensitivity	-5794
▁syncopation	-5795
lv	-5796
500	-5797
edu	-5798
zym	-5799
▁SO	-5800
▁ic	-5801
asks	-5802
athe	-5803
atis	-5804
emet	-5805
know	-5806
rape	-5807
▁600	-5808
▁Ali	-5809
▁Ann	-5810
▁Equ	-5811
▁Tib	-5812
▁pil	-5813
anium	-5814
eenth	-5815
erves	-5816
matic	-5817
oline	-5818
olute	-5819
peror	-5820
rants	-5821
▁1980	-5822
▁Diff	-5823
▁cars	-5824
▁cart	-5825
▁enem	-5826
▁lose	-5827
▁nine	-5828
▁none	-5829
▁prem	-5830
▁tail	-5831
▁Exper	-5832
▁explo	-5833
▁paint	-5834
emetery	-5835
erative	-5836
▁Author	-5837
▁double	-5838
▁remark	-5839
▁square	-5840
▁Perhaps	-5841
▁holding	-5842
▁rapidly	-5843
▁Carolina	-5844
▁frequent	-5845
▁indicate	-5846
▁revealed	-5847
vironments	-5848
▁certainly	-5849
▁diagnosis	-5850
▁technical	-5851
▁Management	-5852
▁agricultural	-5853
.|	-5854
21	-5855
IG	-5856
gl	-5857
mp	-5858
oe	-5859
4).	-5860
hua	-5861
hyd	-5862
inf	-5863
▁34	-5864
▁8.	-5865
▁MS	-5866
____	-5867
alog	-5868
ette	-5869
iana	-5870
ifts	-5871
inux	-5872
rint	-5873
▁Bre	-5874
▁Fam	-5875
▁Pan	-5876
▁Pet	-5877
▁gym	-5878
ipped	-5879
▁Expl	-5880
▁Penn	-5881
▁Supp	-5882
▁Time	-5883
▁boys	-5884
▁cats	-5885
▁shel	-5886
ancing	-5887
ceeded	-5888
ieties	-5889
▁Among	-5890
▁adequ	-5891
▁brand	-5892
▁forth	-5893
▁judge	-5894
▁plain	-5895
▁uncon	-5896
▁walls	-5897
▁Report	-5898
▁decade	-5899
▁muscle	-5900
▁option	-5901
otherapy	-5902
▁burning	-5903
▁continu	-5904
▁examine	-5905
▁prepare	-5906
▁traffic	-5907
▁counties	-5908
▁entirely	-5909
▁mountain	-5910
▁purposes	-5911
▁speaking	-5912
▁Copyright	-5913
▁Jerusalem	-5914
▁employees	-5915
▁employers	-5916
▁involving	-5917
▁movements	-5918
▁physician	-5919
▁recording	-5920
▁responses	-5921
▁foundation	-5922
▁photograph	-5923
▁resolution	-5924
▁destruction	-5925
▁maintenance	-5926
▁concentration	-5927
85	-5928
6).	-5929
och	-5930
uar	-5931
zen	-5932
▁Ec	-5933
▁Ut	-5934
icip	-5935
ione	-5936
rite	-5937
▁189	-5938
▁Cre	-5939
▁Jos	-5940
▁Pac	-5941
▁Pop	-5942
▁Tem	-5943
▁Tri	-5944
▁pig	-5945
▁tro	-5946
ategy	-5947
oviet	-5948
▁Open	-5949
▁laid	-5950
▁mild	-5951
▁soul	-5952
▁surf	-5953
normal	-5954
rieved	-5955
▁Books	-5956
▁Buddh	-5957
▁Check	-5958
▁Henry	-5959
▁Royal	-5960
▁Solar	-5961
▁Tibet	-5962
▁alter	-5963
▁award	-5964
▁error	-5965
▁metal	-5966
▁theme	-5967
▁towns	-5968
▁tribe	-5969
example	-5970
▁Before	-5971
▁Daniel	-5972
▁Senate	-5973
▁butter	-5974
▁debate	-5975
▁injury	-5976
▁pounds	-5977
▁rarely	-5978
cellosis	-5979
▁Gestalt	-5980
▁Instead	-5981
▁Michael	-5982
▁Several	-5983
▁affects	-5984
▁council	-5985
▁decline	-5986
▁enforce	-5987
▁license	-5988
ibilities	-5989
▁Northern	-5990
▁carrying	-5991
▁possibly	-5992
▁strategy	-5993
▁conscious	-5994
▁principle	-5995
▁protected	-5996
▁Christians	-5997
▁ecological	-5998
▁infections	-5999
▁mechanisms	-6000
▁originally	-6001
▁significance	-6002
▁evolutionists	-6003
:5	-6004
Is	-6005
irt	-6006
itz	-6007
olf	-6008
rum	-6009
▁Ez	-6010
▁Id	-6011
emia	-6012
ogle	-6013
yers	-6014
▁AND	-6015
▁Det	-6016
▁Saf	-6017
▁die	-6018
▁tal	-6019
ocols	-6020
organ	-6021
▁1998	-6022
▁Army	-6023
▁Does	-6024
▁Gold	-6025
▁Mont	-6026
▁Qual	-6027
▁Star	-6028
▁Writ	-6029
▁beat	-6030
▁bird	-6031
▁film	-6032
▁flex	-6033
▁outl	-6034
copene	-6035
rapeut	-6036
▁Nolen	-6037
▁Study	-6038
▁dedic	-6039
▁degra	-6040
▁fluor	-6041
▁overl	-6042
▁prove	-6043
▁texts	-6044
▁units	-6045
▁wants	-6046
inction	-6047
theless	-6048
▁apprec	-6049
▁fairly	-6050
▁powers	-6051
▁unlike	-6052
inations	-6053
pressure	-6054
▁absence	-6055
▁capable	-6056
▁cooling	-6057
▁enhance	-6058
▁equival	-6059
▁founded	-6060
▁visible	-6061
▁Agricult	-6062
▁Security	-6063
▁greatest	-6064
▁occasion	-6065
▁produces	-6066
▁receptor	-6067
▁tomatoes	-6068
▁carefully	-6069
▁copyright	-6070
▁diagnosed	-6071
▁framework	-6072
▁limestone	-6073
▁pregnancy	-6074
▁scientist	-6075
▁screening	-6076
▁definition	-6077
▁integrated	-6078
▁structural	-6079
▁constructed	-6080
▁interactions	-6081
27	-6082
?"	-6083
Al	-6084
SP	-6085
-10	-6086
ENT	-6087
hea	-6088
kes	-6089
upp	-6090
uty	-6091
▁Az	-6092
▁CA	-6093
▁DO	-6094
▁ax	-6095
inet	-6096
leys	-6097
liam	-6098
name	-6099
with	-6100
▁Vis	-6101
▁amb	-6102
▁bow	-6103
▁eld	-6104
▁lik	-6105
▁wel	-6106
erent	-6107
▁acts	-6108
▁arts	-6109
▁firm	-6110
▁moon	-6111
▁thin	-6112
▁wish	-6113
apping	-6114
herent	-6115
making	-6116
weight	-6117
▁Italy	-6118
▁Pract	-6119
▁chann	-6120
▁fixed	-6121
▁lungs	-6122
▁manif	-6123
▁nucle	-6124
▁rural	-6125
▁stret	-6126
▁union	-6127
▁wavel	-6128
abulary	-6129
fulness	-6130
ificial	-6131
liament	-6132
▁courts	-6133
▁narrow	-6134
▁permit	-6135
▁pestic	-6136
▁vulner	-6137
▁imaging	-6138
▁inflamm	-6139
▁talking	-6140
roductive	-6141
▁Administ	-6142
▁Columbia	-6143
▁injuries	-6144
▁magnetic	-6145
▁protocol	-6146
▁soldiers	-6147
▁thousand	-6148
▁awareness	-6149
▁elsewhere	-6150
▁exercises	-6151
▁invention	-6152
▁remaining	-6153
▁spiritual	-6154
▁transform	-6155
▁worldwide	-6156
▁businesses	-6157
▁comparison	-6158
▁leadership	-6159
▁transition	-6160
▁Furthermore	-6161
▁communicate	-6162
▁complicated	-6163
▁interaction	-6164
▁introduction	-6165
▁observations	-6166
▁participation	-6167
▁representatives	-6168
3)	-6169
But	-6170
aly	-6171
ipl	-6172
isp	-6173
ora	-6174
▁(6	-6175
▁CP	-6176
▁OF	-6177
▁Ox	-6178
▁Ps	-6179
▁ft	-6180
amar	-6181
aton	-6182
best	-6183
born	-6184
gans	-6185
icks	-6186
uled	-6187
vert	-6188
▁Aff	-6189
▁BPA	-6190
▁Est	-6191
▁Exp	-6192
▁Lar	-6193
▁Mag	-6194
▁bud	-6195
▁fed	-6196
▁uns	-6197
abase	-6198
aired	-6199
field	-6200
idesp	-6201
uster	-6202
▁Hall	-6203
▁Keep	-6204
▁Rock	-6205
▁lots	-6206
▁luck	-6207
▁maps	-6208
▁rose	-6209
▁vote	-6210
active	-6211
arents	-6212
ocracy	-6213
reated	-6214
▁Build	-6215
▁Creat	-6216
▁Psych	-6217
▁apart	-6218
▁loyal	-6219
▁plate	-6220
▁Brazil	-6221
▁Design	-6222
▁Follow	-6223
▁artist	-6224
▁branch	-6225
▁motion	-6226
▁nearby	-6227
▁senior	-6228
▁tomato	-6229
▁tribes	-6230
▁Academy	-6231
▁Climate	-6232
▁Station	-6233
▁advance	-6234
▁deliver	-6235
▁elected	-6236
▁intense	-6237
▁opposed	-6238
idespread	-6239
▁Wildlife	-6240
▁absolute	-6241
▁accepted	-6242
▁declared	-6243
▁parallel	-6244
▁purchase	-6245
▁strongly	-6246
▁Treatment	-6247
▁decreased	-6248
▁hazardous	-6249
▁indicated	-6250
▁pressures	-6251
▁Conference	-6252
▁containers	-6253
▁evaluation	-6254
▁Researchers	-6255
▁experiences	-6256
▁perspective	-6257
▁Conservation	-6258
▁environments	-6259
▁circumstances	-6260
▁investigation	-6261
35	-6262
48	-6263
WD	-6264
gov	-6265
ias	-6266
leg	-6267
ola	-6268
oro	-6269
roc	-6270
ses	-6271
tra	-6272
What	-6273
asma	-6274
free	-6275
rain	-6276
▁185	-6277
▁187	-6278
▁Isa	-6279
▁Mer	-6280
▁Mur	-6281
▁Num	-6282
▁Ren	-6283
▁bio	-6284
▁fit	-6285
▁kit	-6286
erted	-6287
itals	-6288
osite	-6289
ribed	-6290
▁1999	-6291
▁Rome	-6292
▁Stat	-6293
▁ages	-6294
▁bear	-6295
▁poem	-6296
▁poet	-6297
▁reef	-6298
▁roll	-6299
▁unus	-6300
icians	-6301
ounded	-6302
▁Kenya	-6303
▁Paris	-6304
▁Rabbi	-6305
▁aband	-6306
▁cited	-6307
▁dream	-6308
▁happy	-6309
▁reuse	-6310
▁songs	-6311
▁taste	-6312
▁vital	-6313
▁worse	-6314
▁Native	-6315
▁agreed	-6316
▁intake	-6317
▁lesson	-6318
▁merely	-6319
▁motors	-6320
▁museum	-6321
▁obtain	-6322
▁oceans	-6323
▁papers	-6324
▁poison	-6325
▁prosec	-6326
▁unions	-6327
specific	-6328
▁helpful	-6329
▁knowing	-6330
▁opinion	-6331
▁plastic	-6332
▁restore	-6333
▁updated	-6334
▁uranium	-6335
▁Egyptian	-6336
▁Moreover	-6337
▁Slovakia	-6338
▁assigned	-6339
▁breeding	-6340
▁composed	-6341
▁criminal	-6342
▁criteria	-6343
▁mobility	-6344
▁supports	-6345
▁committed	-6346
▁fisheries	-6347
▁nutrition	-6348
▁procedure	-6349
▁Protection	-6350
▁department	-6351
▁equivalent	-6352
▁greenhouse	-6353
▁psychology	-6354
▁generations	-6355
▁instruction	-6356
▁contemporary	-6357
▁successfully	-6358
▁implementation	-6359
ij	-6360
1).	-6361
eck	-6362
fra	-6363
lot	-6364
oom	-6365
pet	-6366
uan	-6367
wan	-6368
▁(8	-6369
▁5,	-6370
▁Kn	-6371
▁Ok	-6372
medi	-6373
ulum	-6374
zyme	-6375
▁Son	-6376
▁bor	-6377
▁mac	-6378
▁mos	-6379
▁ran	-6380
▁sad	-6381
cohol	-6382
eling	-6383
enses	-6384
pling	-6385
stein	-6386
uracy	-6387
utive	-6388
▁Acts	-6389
▁Cath	-6390
▁Fair	-6391
▁Four	-6392
▁aims	-6393
▁aren	-6394
▁knee	-6395
▁leaf	-6396
▁rein	-6397
▁sail	-6398
▁valu	-6399
ivated	-6400
luding	-6401
▁2012.	-6402
▁Party	-6403
▁Start	-6404
▁alive	-6405
▁bears	-6406
▁catch	-6407
▁delay	-6408
▁enzym	-6409
▁false	-6410
▁leads	-6411
▁lists	-6412
▁satis	-6413
▁valid	-6414
ocation	-6415
▁Google	-6416
▁Meteor	-6417
▁Navajo	-6418
▁empire	-6419
▁joined	-6420
▁meters	-6421
▁stands	-6422
▁stored	-6423
gression	-6424
▁Richard	-6425
▁dollars	-6426
▁dynamic	-6427
▁edition	-6428
▁engaged	-6429
▁killing	-6430
▁sensory	-6431
▁thermal	-6432
▁Atlantic	-6433
▁arrested	-6434
▁gasoline	-6435
▁historic	-6436
▁painting	-6437
▁studying	-6438
▁thoughts	-6439
▁interface	-6440
▁interview	-6441
▁newspaper	-6442
▁secondary	-6443
▁therapeut	-6444
▁difficulty	-6445
▁indigenous	-6446
▁permission	-6447
▁phenomenon	-6448
▁settlement	-6449
▁underlying	-6450
▁agriculture	-6451
▁distributed	-6452
▁alternatives	-6453
▁representative	-6454
DP	-6455
MA	-6456
aga	-6457
hop	-6458
nom	-6459
▁33	-6460
▁6,	-6461
▁75	-6462
▁Jo	-6463
▁Jr	-6464
They	-6465
ball	-6466
eper	-6467
igor	-6468
osal	-6469
▁(20	-6470
▁10.	-6471
▁Del	-6472
▁Nic	-6473
▁Rom	-6474
▁cub	-6475
▁hem	-6476
▁ing	-6477
▁lie	-6478
about	-6479
ureau	-6480
while	-6481
▁Back	-6482
▁Know	-6483
▁Mark	-6484
▁Moon	-6485
▁Port	-6486
▁band	-6487
▁bath	-6488
▁cann	-6489
▁mand	-6490
▁mort	-6491
▁race	-6492
▁sets	-6493
esides	-6494
otland	-6495
rative	-6496
ustain	-6497
▁2008.	-6498
▁Asian	-6499
▁Lands	-6500
▁Moses	-6501
▁Sudan	-6502
▁knows	-6503
▁pharm	-6504
▁potat	-6505
▁shore	-6506
▁truly	-6507
▁turns	-6508
hemical	-6509
rection	-6510
▁Engine	-6511
▁Greece	-6512
▁Soviet	-6513
▁Survey	-6514
▁Though	-6515
▁analog	-6516
▁closer	-6517
▁exists	-6518
▁galaxy	-6519
▁owners	-6520
▁proved	-6521
▁rivers	-6522
▁seemed	-6523
▁strict	-6524
ediatric	-6525
▁Raymond	-6526
▁alleged	-6527
▁closely	-6528
▁congreg	-6529
▁descend	-6530
▁forming	-6531
▁putting	-6532
▁routine	-6533
▁Southern	-6534
▁accurate	-6535
▁machines	-6536
▁modified	-6537
▁treating	-6538
▁unemploy	-6539
▁Evolution	-6540
▁cognitive	-6541
▁consumers	-6542
▁encourage	-6543
▁indicates	-6544
▁protocols	-6545
▁sediments	-6546
▁villagers	-6547
▁guidelines	-6548
▁initiative	-6549
▁networking	-6550
▁supporting	-6551
▁understood	-6552
▁wavelength	-6553
▁composition	-6554
▁Encyclopedia	-6555
▁Organization	-6556
▁experimental	-6557
6;	-6558
GB	-6559
eur	-6560
lig	-6561
▁id	-6562
-200	-6563
aked	-6564
ders	-6565
ella	-6566
iary	-6567
olly	-6568
omat	-6569
rich	-6570
teen	-6571
udes	-6572
unch	-6573
▁Bal	-6574
▁Gar	-6575
▁Hom	-6576
▁Jur	-6577
▁Sar	-6578
▁dim	-6579
▁era	-6580
▁kil	-6581
▁mit	-6582
▁pit	-6583
▁van	-6584
asant	-6585
asure	-6586
ether	-6587
ograp	-6588
state	-6589
▁Area	-6590
▁Cell	-6591
▁Zion	-6592
▁adds	-6593
▁curd	-6594
▁earn	-6595
▁monu	-6596
▁neut	-6597
▁sole	-6598
▁sons	-6599
▁spok	-6600
asters	-6601
▁Saint	-6602
▁bonds	-6603
▁camer	-6604
▁clock	-6605
▁funds	-6606
▁grade	-6607
▁morph	-6608
▁raise	-6609
▁sight	-6610
▁sport	-6611
▁couple	-6612
▁hidden	-6613
▁mobile	-6614
▁preced	-6615
▁signal	-6616
▁transc	-6617
unicipal	-6618
▁Finally	-6619
▁Similar	-6620
▁anxiety	-6621
▁capture	-6622
▁careful	-6623
▁infrast	-6624
▁ongoing	-6625
▁passing	-6626
▁planned	-6627
▁walking	-6628
▁younger	-6629
▁Learning	-6630
▁accuracy	-6631
▁branches	-6632
▁examined	-6633
▁juvenile	-6634
▁minerals	-6635
▁molecule	-6636
▁ordinary	-6637
▁preserve	-6638
▁rational	-6639
▁whatever	-6640
▁appearance	-6641
▁conversion	-6642
▁initiatives	-6643
▁recognition	-6644
▁considerable	-6645
▁conventional	-6646
▁disabilities	-6647
▁restrictions	-6648
43	-6649
UT	-6650
iy	-6651
aph	-6652
azi	-6653
bar	-6654
car	-6655
exp	-6656
gon	-6657
how	-6658
icy	-6659
ima	-6660
iti	-6661
ocy	-6662
osc	-6663
qih	-6664
sen	-6665
ugg	-6666
yer	-6667
▁43	-6668
▁EU	-6669
▁cd	-6670
▁pH	-6671
When	-6672
cher	-6673
enda	-6674
host	-6675
lets	-6676
mble	-6677
▁ASD	-6678
▁Eth	-6679
▁Iss	-6680
▁RNA	-6681
▁Rio	-6682
▁Soy	-6683
▁abd	-6684
▁arr	-6685
▁ble	-6686
▁gap	-6687
aning	-6688
itime	-6689
oning	-6690
▁Camp	-6691
▁Deng	-6692
▁Down	-6693
▁Mach	-6694
▁Mult	-6695
▁acre	-6696
▁beta	-6697
▁boot	-6698
▁fasc	-6699
▁grew	-6700
▁lies	-6701
▁rice	-6702
▁seed	-6703
▁sulf	-6704
▁wire	-6705
charge	-6706
ologic	-6707
▁Three	-6708
▁angle	-6709
▁faqih	-6710
▁neuro	-6711
▁squid	-6712
▁train	-6713
avement	-6714
essions	-6715
ruption	-6716
▁Common	-6717
▁covers	-6718
▁define	-6719
▁fertil	-6720
▁handle	-6721
▁ingred	-6722
▁pulley	-6723
▁script	-6724
▁signed	-6725
▁temple	-6726
▁arrived	-6727
▁artists	-6728
▁charges	-6729
▁distant	-6730
▁equally	-6731
▁inhabit	-6732
▁markets	-6733
▁mixture	-6734
▁outcome	-6735
▁request	-6736
▁seconds	-6737
▁willing	-6738
▁Physical	-6739
▁Province	-6740
▁agencies	-6741
▁expanded	-6742
▁guidance	-6743
▁habitats	-6744
▁reliable	-6745
▁replaced	-6746
▁valuable	-6747
▁contained	-6748
▁happening	-6749
▁mountains	-6750
▁positions	-6751
▁renewable	-6752
▁opposition	-6753
▁percentage	-6754
▁preventing	-6755
▁cooperation	-6756
▁partnership	-6757
▁developments	-6758
▁administration	-6759
▁sustainability	-6760
26	-6761
76	-6762
7;	-6763
98	-6764
za	-6765
opl	-6766
uts	-6767
▁CT	-6768
▁Du	-6769
▁Ir	-6770
▁mg	-6771
aded	-6772
aska	-6773
from	-6774
prof	-6775
rans	-6776
rous	-6777
soft	-6778
▁Big	-6779
▁HGF	-6780
▁Mid	-6781
▁ark	-6782
▁wid	-6783
ading	-6784
erior	-6785
icate	-6786
oxide	-6787
▁1970	-6788
▁Club	-6789
▁Emer	-6790
▁Move	-6791
▁Page	-6792
▁Prop	-6793
▁dipl	-6794
▁elev	-6795
▁flat	-6796
▁lake	-6797
▁park	-6798
▁pond	-6799
▁tunn	-6800
▁zone	-6801
:10.10	-6802
bestos	-6803
ourage	-6804
ourney	-6805
▁2006.	-6806
▁Appro	-6807
▁Below	-6808
▁Coast	-6809
▁Ident	-6810
▁Smith	-6811
▁Spain	-6812
▁chair	-6813
▁chick	-6814
▁holes	-6815
▁ideal	-6816
▁orbit	-6817
▁tasks	-6818
ilation	-6819
ressive	-6820
▁Modern	-6821
▁Morris	-6822
▁brings	-6823
▁enable	-6824
▁enzyme	-6825
▁estuar	-6826
▁format	-6827
▁organs	-6828
▁prompt	-6829
▁refuge	-6830
▁reveal	-6831
▁taught	-6832
iability	-6833
▁Pacific	-6834
▁Persian	-6835
▁adverse	-6836
▁charged	-6837
▁coastal	-6838
▁consuls	-6839
▁missing	-6840
▁persist	-6841
▁reduces	-6842
▁Catholic	-6843
▁Division	-6844
▁athletes	-6845
▁concrete	-6846
▁definite	-6847
▁lifetime	-6848
▁lycopene	-6849
▁provider	-6850
▁regarded	-6851
▁Christmas	-6852
▁Retrieved	-6853
▁reactions	-6854
▁Dictionary	-6855
▁convention	-6856
▁protecting	-6857
▁reproductive	-6858
")	-6859
ga	-6860
ny	-6861
You	-6862
bul	-6863
dev	-6864
ila	-6865
iph	-6866
nel	-6867
nex	-6868
sts	-6869
ums	-6870
▁65	-6871
▁MO	-6872
▁OS	-6873
burn	-6874
mann	-6875
ners	-6876
olit	-6877
oust	-6878
rary	-6879
uels	-6880
ults	-6881
▁700	-6882
▁Bir	-6883
▁Hon	-6884
▁Los	-6885
▁Nov	-6886
▁PhD	-6887
▁Put	-6888
▁emp	-6889
agues	-6890
aints	-6891
ihood	-6892
obile	-6893
▁Chic	-6894
▁Grey	-6895
▁NGOs	-6896
▁Tenn	-6897
▁Virt	-6898
▁eggs	-6899
▁hosp	-6900
▁hunt	-6901
▁insc	-6902
▁plus	-6903
▁recy	-6904
estine	-6905
ulture	-6906
▁Kings	-6907
▁Light	-6908
▁Times	-6909
▁accum	-6910
▁blank	-6911
▁holid	-6912
▁hypot	-6913
▁imper	-6914
▁steam	-6915
▁veter	-6916
▁withd	-6917
ascular	-6918
western	-6919
▁Centre	-6920
▁budget	-6921
▁escape	-6922
▁exclus	-6923
▁extend	-6924
▁gather	-6925
▁hurric	-6926
▁meteor	-6927
▁mining	-6928
ependent	-6929
▁crucial	-6930
▁defense	-6931
▁dropped	-6932
▁stopped	-6933
▁trouble	-6934
▁vessels	-6935
▁windows	-6936
▁Standard	-6937
▁attempts	-6938
▁dominant	-6939
▁evaluate	-6940
▁indirect	-6941
▁nitrogen	-6942
▁syndrome	-6943
▁theories	-6944
▁elections	-6945
▁excessive	-6946
▁fragments	-6947
▁insurance	-6948
▁intensity	-6949
▁solutions	-6950
▁Philosophy	-6951
▁Prevention	-6952
▁beneficial	-6953
▁classified	-6954
▁commission	-6955
▁strengthen	-6956
▁demonstrate	-6957
▁participate	-6958
▁represented	-6959
▁consequences	-6960
▁intervention	-6961
So	-6962
Un	-6963
▁q	-6964
3).	-6965
cho	-6966
fts	-6967
kin	-6968
sey	-6969
spe	-6970
sub	-6971
▁29	-6972
▁Er	-6973
▁IX	-6974
alla	-6975
atra	-6976
keys	-6977
kins	-6978
omal	-6979
pass	-6980
sylv	-6981
umes	-6982
▁800	-6983
▁Att	-6984
▁CAL	-6985
▁Dig	-6986
▁Ott	-6987
▁Rus	-6988
▁Top	-6989
▁bru	-6990
▁mal	-6991
▁orb	-6992
▁rac	-6993
▁san	-6994
▁sup	-6995
anges	-6996
class	-6997
ented	-6998
idity	-6999
liest	-7000
onald	-7001
stone	-7002
which	-7003
▁Find	-7004
▁Holy	-7005
▁Land	-7006
▁Lang	-7007
▁Meth	-7008
▁cure	-7009
▁dust	-7010
▁ends	-7011
▁epis	-7012
▁pick	-7013
▁subs	-7014
▁tank	-7015
▁thor	-7016
▁wait	-7017
ounter	-7018
▁2012,	-7019
▁Const	-7020
▁argue	-7021
▁crops	-7022
▁embry	-7023
▁entry	-7024
▁label	-7025
▁regul	-7026
▁ships	-7027
▁uncom	-7028
athered	-7029
elescop	-7030
ogether	-7031
ulinary	-7032
▁Battle	-7033
▁Capone	-7034
▁agents	-7035
▁assign	-7036
▁beings	-7037
▁border	-7038
▁caught	-7039
▁centre	-7040
▁distur	-7041
▁drives	-7042
▁filled	-7043
▁smooth	-7044
▁starts	-7045
▁testim	-7046
atically	-7047
▁Georgia	-7048
▁butterf	-7049
▁calling	-7050
▁entered	-7051
▁feeding	-7052
▁gravity	-7053
▁harmful	-7054
▁imagine	-7055
▁lawyers	-7056
▁metabol	-7057
▁opening	-7058
▁session	-7059
▁settled	-7060
▁thereby	-7061
▁uniform	-7062
▁Pennsylv	-7063
▁cemetery	-7064
▁controll	-7065
▁database	-7066
▁distingu	-7067
▁feedback	-7068
▁fragment	-7069
▁genetics	-7070
▁isolated	-7071
▁politics	-7072
▁relation	-7073
▁reviewed	-7074
▁Community	-7075
▁childhood	-7076
▁dedicated	-7077
▁immediate	-7078
▁improving	-7079
▁perceived	-7080
▁permitted	-7081
▁preferred	-7082
▁receiving	-7083
▁artificial	-7084
▁commitment	-7085
▁provisions	-7086
▁supplement	-7087
▁vulnerable	-7088
▁widespread	-7089
▁substantial	-7090
▁biodiversity	-7091
47	-7092
86	-7093
IL	-7094
MO	-7095
MS	-7096
TH	-7097
eh	-7098
▁?	-7099
awn	-7100
tts	-7101
▁32	-7102
▁IT	-7103
▁Ol	-7104
asty	-7105
cons	-7106
ctor	-7107
fall	-7108
foot	-7109
iano	-7110
inch	-7111
odox	-7112
owai	-7113
ulty	-7114
▁Cat	-7115
▁EDS	-7116
▁Hay	-7117
▁Laz	-7118
▁Tim	-7119
▁Unf	-7120
▁Whe	-7121
▁Who	-7122
▁Wik	-7123
▁bag	-7124
▁gay	-7125
▁thr	-7126
There	-7127
under	-7128
▁AIDS	-7129
▁Conf	-7130
▁Game	-7131
▁Give	-7132
▁crow	-7133
▁mail	-7134
▁myth	-7135
▁oils	-7136
▁peak	-7137
▁tens	-7138
▁tips	-7139
▁volt	-7140
▁wasn	-7141
achuse	-7142
ateral	-7143
incial	-7144
ivered	-7145
ometer	-7146
teenth	-7147
▁2011.	-7148
▁Never	-7149
▁Plant	-7150
▁Queen	-7151
▁Trade	-7152
▁banks	-7153
▁chain	-7154
▁enorm	-7155
▁glass	-7156
▁guard	-7157
▁mouse	-7158
▁recip	-7159
▁reign	-7160
▁slave	-7161
ributes	-7162
▁Access	-7163
▁Edward	-7164
▁Having	-7165
▁Martin	-7166
▁Potter	-7167
▁Secret	-7168
▁acknow	-7169
▁assist	-7170
▁attend	-7171
▁barrel	-7172
▁conven	-7173
▁correl	-7174
▁depart	-7175
▁driven	-7176
▁editor	-7177
▁engage	-7178
▁fought	-7179
▁gender	-7180
▁inches	-7181
▁interf	-7182
▁labour	-7183
▁master	-7184
▁prayer	-7185
▁suffer	-7186
▁biggest	-7187
▁cancers	-7188
▁comfort	-7189
▁creates	-7190
▁diagram	-7191
▁existed	-7192
▁forests	-7193
▁hunters	-7194
▁passage	-7195
▁playing	-7196
▁unusual	-7197
achusetts	-7198
▁Assembly	-7199
▁Japanese	-7200
▁Language	-7201
▁Services	-7202
▁accident	-7203
▁attitude	-7204
▁brothers	-7205
▁minimize	-7206
▁moisture	-7207
▁pregnant	-7208
▁reserved	-7209
▁shipping	-7210
▁variable	-7211
▁aesthetic	-7212
▁concluded	-7213
▁diversity	-7214
▁estimates	-7215
▁licensing	-7216
▁succeeded	-7217
▁unconform	-7218
▁conference	-7219
▁constantly	-7220
▁physicians	-7221
▁prevention	-7222
▁transplant	-7223
▁ultimately	-7224
▁discussions	-7225
▁essentially	-7226
▁preservation	-7227
▁Administration	-7228
▁infrastructure	-7229
▁transportation	-7230
.1	-7231
.;	-7232
CT	-7233
GY	-7234
PD	-7235
For	-7236
asp	-7237
cul	-7238
mic	-7239
rep	-7240
urg	-7241
▁37	-7242
▁Cy	-7243
▁Lo	-7244
▁ov	-7245
adow	-7246
apor	-7247
chen	-7248
rows	-7249
▁180	-7250
▁21,	-7251
▁Air	-7252
▁Ins	-7253
▁Mac	-7254
▁Sat	-7255
▁Wed	-7256
▁boy	-7257
▁flo	-7258
▁fol	-7259
▁las	-7260
▁neu	-7261
▁yes	-7262
comes	-7263
erman	-7264
heast	-7265
omers	-7266
ooked	-7267
▁Fact	-7268
▁Fund	-7269
▁Hill	-7270
▁Next	-7271
▁conj	-7272
▁dece	-7273
▁door	-7274
▁dose	-7275
▁gard	-7276
▁incl	-7277
▁irre	-7278
▁math	-7279
▁oxid	-7280
▁pace	-7281
▁stre	-7282
ercury	-7283
lation	-7284
mented	-7285
rovers	-7286
▁Bible	-7287
▁Quest	-7288
▁Rossi	-7289
▁Soyuz	-7290
▁chest	-7291
▁doses	-7292
▁faced	-7293
▁falls	-7294
▁fluid	-7295
▁loved	-7296
▁moves	-7297
▁polar	-7298
▁skill	-7299
▁stack	-7300
▁stake	-7301
▁yield	-7302
hetoric	-7303
▁Indeed	-7304
▁Street	-7305
▁assume	-7306
▁fourth	-7307
▁impair	-7308
▁phosph	-7309
▁relief	-7310
▁seeing	-7311
▁tables	-7312
▁troops	-7313
▁unable	-7314
▁undert	-7315
ardation	-7316
gressive	-7317
▁Biology	-7318
▁Chicago	-7319
▁Emperor	-7320
▁alcohol	-7321
▁desired	-7322
▁dispute	-7323
▁enzymes	-7324
▁evident	-7325
▁fossils	-7326
▁ordered	-7327
▁sharing	-7328
▁signals	-7329
▁trigger	-7330
mentation	-7331
▁Heritage	-7332
▁accounts	-7333
▁compound	-7334
▁consumer	-7335
▁covering	-7336
▁creative	-7337
▁disaster	-7338
▁division	-7339
▁earliest	-7340
▁emphasis	-7341
▁hardware	-7342
▁manifest	-7343
▁stations	-7344
▁suitable	-7345
▁Tradition	-7346
▁appointed	-7347
▁membranes	-7348
▁sculpture	-7349
▁virtually	-7350
▁Laboratory	-7351
▁contribute	-7352
▁directions	-7353
▁encouraged	-7354
▁statistics	-7355
▁instruments	-7356
▁limitations	-7357
▁therapeutic	-7358
▁Massachusetts	-7359
Ph	-7360
SU	-7361
ady	-7362
akh	-7363
lyc	-7364
rin	-7365
run	-7366
▁Po	-7367
Iran	-7368
ails	-7369
bean	-7370
brid	-7371
gent	-7372
irit	-7373
izer	-7374
lete	-7375
osus	-7376
roid	-7377
role	-7378
▁(10	-7379
▁(2)	-7380
▁19,	-7381
▁Bab	-7382
▁Beh	-7383
▁Ess	-7384
▁Fre	-7385
▁Hot	-7386
▁Low	-7387
▁Pic	-7388
▁aer	-7389
▁agn	-7390
▁fer	-7391
▁lin	-7392
Whish	-7393
actic	-7394
arant	-7395
aying	-7396
earch	-7397
eless	-7398
icide	-7399
inois	-7400
oding	-7401
ogene	-7402
phalt	-7403
reens	-7404
ricts	-7405
▁Head	-7406
▁Sing	-7407
▁epid	-7408
▁tack	-7409
isters	-7410
mentia	-7411
rowing	-7412
thodox	-7413
▁Avoid	-7414
▁Chile	-7415
▁Kowai	-7416
▁Muham	-7417
▁Phnom	-7418
▁Scott	-7419
▁atoms	-7420
▁crude	-7421
▁diver	-7422
▁holds	-7423
▁horiz	-7424
▁prime	-7425
▁prosp	-7426
▁relax	-7427
▁rooms	-7428
▁sharp	-7429
▁simpl	-7430
▁split	-7431
▁surve	-7432
holders	-7433
ropical	-7434
▁Albert	-7435
▁Comple	-7436
▁Cumber	-7437
▁Foster	-7438
▁infant	-7439
▁phrase	-7440
▁plasma	-7441
▁pollut	-7442
▁precip	-7443
▁preval	-7444
▁robust	-7445
▁thanks	-7446
▁theore	-7447
▁trends	-7448
iliation	-7449
stitutes	-7450
▁Abdalla	-7451
▁Disease	-7452
▁Johnson	-7453
▁bonding	-7454
▁designs	-7455
▁imprint	-7456
▁muscles	-7457
▁payment	-7458
▁recover	-7459
▁shuttle	-7460
▁suscept	-7461
▁Consider	-7462
▁Illinois	-7463
▁abnormal	-7464
▁adequate	-7465
▁approved	-7466
▁asbestos	-7467
▁download	-7468
▁emerging	-7469
▁judicial	-7470
▁minister	-7471
▁register	-7472
▁windings	-7473
▁detection	-7474
▁emotional	-7475
▁installed	-7476
▁philosoph	-7477
▁principal	-7478
▁reflected	-7479
▁suffering	-7480
▁Cumberland	-7481
▁colleagues	-7482
▁controvers	-7483
▁functional	-7484
▁researcher	-7485
▁subsequent	-7486
▁explanation	-7487
▁legislation	-7488
▁mathematics	-7489
▁trafficking	-7490
▁manufacturing	-7491
▁professionals	-7492
/2	-7493
22	-7494
79	-7495
84	-7496
CH	-7497
VD	-7498
20.	-7499
IST	-7500
aka	-7501
bel	-7502
irr	-7503
opp	-7504
rif	-7505
ype	-7506
▁Fe	-7507
asai	-7508
bial	-7509
elve	-7510
erly	-7511
ghan	-7512
igan	-7513
igra	-7514
ilig	-7515
imid	-7516
inic	-7517
ogue	-7518
▁Adv	-7519
▁CWD	-7520
▁Fed	-7521
▁Kam	-7522
▁Mad	-7523
▁Typ	-7524
▁Upd	-7525
▁Var	-7526
▁Ven	-7527
abits	-7528
iracy	-7529
omach	-7530
rison	-7531
▁1997	-7532
▁Bank	-7533
▁Bill	-7534
▁Gran	-7535
▁Pass	-7536
▁Wood	-7537
▁amph	-7538
▁cash	-7539
▁elig	-7540
▁fulf	-7541
▁join	-7542
▁scar	-7543
▁vent	-7544
itudes	-7545
verteb	-7546
▁Azmet	-7547
▁Being	-7548
▁Clear	-7549
▁Field	-7550
▁Harry	-7551
▁Khmer	-7552
▁Level	-7553
▁abund	-7554
▁beach	-7555
▁drawn	-7556
▁energ	-7557
▁giant	-7558
▁morer	-7559
▁occas	-7560
▁quiet	-7561
▁secre	-7562
▁steel	-7563
▁stuff	-7564
▁usage	-7565
▁voice	-7566
riculum	-7567
▁Marine	-7568
▁aspect	-7569
▁desire	-7570
▁fellow	-7571
▁gained	-7572
▁repair	-7573
ogenesis	-7574
▁Parents	-7575
▁affairs	-7576
▁arrange	-7577
▁battery	-7578
▁compris	-7579
▁derived	-7580
▁flowers	-7581
▁hormone	-7582
▁injured	-7583
▁removal	-7584
▁tissues	-7585
▁turning	-7586
▁worship	-7587
▁Location	-7588
▁Muhammad	-7589
▁Practice	-7590
▁billions	-7591
▁dramatic	-7592
▁enormous	-7593
▁galaxies	-7594
▁handling	-7595
▁licenses	-7596
▁minority	-7597
▁opinions	-7598
▁partners	-7599
▁presents	-7600
▁rotation	-7601
▁stronger	-7602
▁behaviors	-7603
▁nutrients	-7604
▁occurring	-7605
▁processed	-7606
▁Individual	-7607
▁addressing	-7608
▁conclusion	-7609
▁democratic	-7610
▁electronic	-7611
▁performing	-7612
▁spacecraft	-7613
▁statements	-7614
▁association	-7615
▁connections	-7616
▁functioning	-7617
▁legislature	-7618
▁publication	-7619
▁Pennsylvania	-7620
▁Unfortunately	-7621
65	-7622
69	-7623
EP	-7624
RP	-7625
gu	-7626
rd	-7627
EPA	-7628
Gen	-7629
aus	-7630
cus	-7631
een	-7632
net	-7633
obe	-7634
▁2:	-7635
▁7,	-7636
▁SD	-7637
▁od	-7638
▁ru	-7639
emic	-7640
made	-7641
oung	-7642
outs	-7643
rait	-7644
real	-7645
rier	-7646
vard	-7647
▁Cro	-7648
▁Gap	-7649
▁Hit	-7650
▁Key	-7651
▁SEL	-7652
▁asc	-7653
▁dip	-7654
▁unp	-7655
▁ven	-7656
after	-7657
amber	-7658
esity	-7659
etary	-7660
eters	-7661
inces	-7662
ioxid	-7663
ipher	-7664
itled	-7665
level	-7666
riers	-7667
rooms	-7668
scale	-7669
ylene	-7670
▁Card	-7671
▁Circ	-7672
▁Form	-7673
▁Fort	-7674
▁Frid	-7675
▁List	-7676
▁Near	-7677
▁Penh	-7678
▁Vill	-7679
▁Zeal	-7680
▁belt	-7681
▁clot	-7682
▁fate	-7683
▁hole	-7684
▁mood	-7685
▁prev	-7686
▁wear	-7687
alysis	-7688
eroids	-7689
isdict	-7690
ocated	-7691
verest	-7692
▁Apple	-7693
▁Media	-7694
▁Music	-7695
▁Small	-7696
▁bless	-7697
▁blues	-7698
▁disks	-7699
▁ghost	-7700
▁mixed	-7701
▁obese	-7702
▁overw	-7703
▁param	-7704
▁plane	-7705
▁proof	-7706
▁rhyth	-7707
▁roles	-7708
▁tight	-7709
▁trace	-7710
century	-7711
ificate	-7712
thernet	-7713
▁10,000	-7714
▁Cambod	-7715
▁Forest	-7716
▁Online	-7717
▁agenda	-7718
▁babies	-7719
▁debris	-7720
▁defeat	-7721
▁errors	-7722
▁golden	-7723
▁lowest	-7724
▁magnet	-7725
▁orient	-7726
▁writes	-7727
aintance	-7728
▁Kingdom	-7729
▁Process	-7730
▁Vietnam	-7731
▁Without	-7732
▁applies	-7733
▁conclus	-7734
▁demands	-7735
▁earthqu	-7736
▁feuding	-7737
▁gestalt	-7738
▁planets	-7739
▁stomach	-7740
▁argument	-7741
▁captured	-7742
▁controls	-7743
▁cultures	-7744
▁fighting	-7745
▁gathered	-7746
▁inspired	-7747
▁opposite	-7748
▁standing	-7749
▁superior	-7750
▁tracking	-7751
▁vaccines	-7752
▁accidents	-7753
▁announced	-7754
▁correctly	-7755
▁delivered	-7756
▁engineers	-7757
▁intermedi	-7758
▁literally	-7759
▁satellite	-7760
▁sustained	-7761
▁Australian	-7762
▁influenced	-7763
▁vocabulary	-7764
▁enforcement	-7765
▁examination	-7766
▁probability	-7767
▁restoration	-7768
▁retardation	-7769
▁registration	-7770
▁characterized	-7771
▁contributions	-7772
▁corresponding	-7773
1-	-7774
?”	-7775
As	-7776
He	-7777
PO	-7778
sm	-7779
100	-7780
And	-7781
ait	-7782
jan	-7783
nai	-7784
nat	-7785
oir	-7786
oys	-7787
rus	-7788
sky	-7789
||3	-7790
▁55	-7791
▁AD	-7792
▁Ib	-7793
ITES	-7794
apse	-7795
gers	-7796
held	-7797
hent	-7798
iger	-7799
obic	-7800
obra	-7801
omed	-7802
ribe	-7803
sell	-7804
tery	-7805
▁(1)	-7806
▁Add	-7807
▁Did	-7808
▁Due	-7809
▁Haw	-7810
▁Imp	-7811
▁Lic	-7812
▁Mot	-7813
▁pus	-7814
▁rid	-7815
arios	-7816
ement	-7817
inery	-7818
odium	-7819
orses	-7820
print	-7821
▁Batt	-7822
▁Cart	-7823
▁Conn	-7824
▁Crit	-7825
▁Swed	-7826
▁Tout	-7827
▁Utah	-7828
▁jump	-7829
▁peer	-7830
action	-7831
omatic	-7832
system	-7833
▁2007,	-7834
▁begun	-7835
▁crime	-7836
▁haven	-7837
▁keeps	-7838
▁ninet	-7839
▁roads	-7840
▁sales	-7841
▁spons	-7842
▁wheel	-7843
fection	-7844
quality	-7845
▁Friday	-7846
▁Indust	-7847
▁Joshua	-7848
▁Oxford	-7849
▁Volume	-7850
▁config	-7851
▁oldest	-7852
▁plumul	-7853
▁resemb	-7854
▁thirty	-7855
▁timber	-7856
▁writer	-7857
aneously	-7858
ilateral	-7859
▁Certain	-7860
▁choices	-7861
▁comprom	-7862
▁damaged	-7863
▁dealing	-7864
▁guarant	-7865
▁induced	-7866
▁inherit	-7867
▁journey	-7868
▁optical	-7869
▁revenue	-7870
▁slavery	-7871
▁tension	-7872
▁Toutatis	-7873
▁analyzed	-7874
▁detected	-7875
▁forecast	-7876
▁networks	-7877
ustainable	-7878
▁Following	-7879
▁attempted	-7880
▁candidate	-7881
▁customers	-7882
▁exception	-7883
▁grounding	-7884
▁hospitals	-7885
▁measuring	-7886
▁merchants	-7887
▁prominent	-7888
▁qualities	-7889
▁testimony	-7890
▁immigrants	-7891
▁investment	-7892
▁medication	-7893
▁plumulosus	-7894
▁vegetation	-7895
▁necessarily	-7896
▁difficulties	-7897
▁inflammation	-7898
▁respectively	-7899
▁recommendations	-7900
33	-7901
49	-7902
5%	-7903
77	-7904
88	-7905
Con	-7906
fur	-7907
gae	-7908
isi	-7909
jud	-7910
mor	-7911
olt	-7912
rad	-7913
sis	-7914
ugs	-7915
uzz	-7916
▁8,	-7917
▁9,	-7918
▁9.	-7919
▁AR	-7920
▁Ly	-7921
▁NC	-7922
▁Rh	-7923
agan	-7924
▁Bus	-7925
▁CON	-7926
▁Hor	-7927
▁Hur	-7928
▁Job	-7929
▁Kir	-7930
anger	-7931
asive	-7932
chron	-7933
iscus	-7934
lines	-7935
lotte	-7936
oglob	-7937
opoly	-7938
osion	-7939
white	-7940
▁Call	-7941
▁Corn	-7942
▁Date	-7943
▁Fred	-7944
▁Sign	-7945
▁Soft	-7946
▁aged	-7947
▁bail	-7948
▁cave	-7949
▁cere	-7950
▁deer	-7951
▁flag	-7952
▁gate	-7953
▁libr	-7954
▁seat	-7955
▁trip	-7956
▁vass	-7957
▁wage	-7958
Americ	-7959
erated	-7960
orters	-7961
rators	-7962
roleum	-7963
screen	-7964
▁2009.	-7965
▁Given	-7966
▁Minor	-7967
▁Syria	-7968
▁ahead	-7969
▁apost	-7970
▁artis	-7971
▁brack	-7972
▁cardi	-7973
▁curve	-7974
▁embra	-7975
▁exped	-7976
▁manip	-7977
▁obser	-7978
▁rocks	-7979
▁stood	-7980
▁usual	-7981
ailable	-7982
lishing	-7983
station	-7984
▁Change	-7985
▁Hitler	-7986
▁Nation	-7987
▁Valley	-7988
▁asking	-7989
▁bridge	-7990
▁circle	-7991
▁mature	-7992
▁punish	-7993
▁rating	-7994
▁spoken	-7995
▁transp	-7996
▁tumors	-7997
▁videos	-7998
atherine	-7999
ordinary	-8000
▁Eastern	-8001
▁Indians	-8002
▁Special	-8003
▁Therapy	-8004
▁binding	-8005
▁chromos	-8006
▁combine	-8007
▁conserv	-8008
▁courses	-8009
▁heating	-8010
▁officer	-8011
▁origins	-8012
▁physics	-8013
▁prophet	-8014
▁readers	-8015
▁refused	-8016
▁trained	-8017
▁waiting	-8018
▁writers	-8019
▁actively	-8020
▁cleaning	-8021
▁disputes	-8022
▁entering	-8023
▁feelings	-8024
▁flexible	-8025
▁fluoride	-8026
▁interpre	-8027
▁literary	-8028
▁monoxide	-8029
▁salinity	-8030
▁sessions	-8031
▁suffered	-8032
▁surfaces	-8033
▁survived	-8034
imensional	-8035
ographical	-8036
▁Louisiana	-8037
▁affecting	-8038
▁compounds	-8039
▁creatures	-8040
▁dependent	-8041
▁highlight	-8042
▁instances	-8043
▁stability	-8044
▁strategic	-8045
▁territory	-8046
▁variation	-8047
▁attributed	-8048
▁categories	-8049
▁occupation	-8050
▁remarkable	-8051
▁volunteers	-8052
▁inhabitants	-8053
▁institution	-8054
▁observation	-8055
▁translation	-8056
▁architecture	-8057
▁effectiveness	-8058
▁characteristic	-8059
'.	-8060
/0	-8061
74	-8062
Ex	-8063
IF	-8064
SS	-8065
/20	-8066
but	-8067
cin	-8068
ews	-8069
los	-8070
oli	-8071
pes	-8072
ram	-8073
tic	-8074
vic	-8075
▁1:	-8076
▁DC	-8077
▁RO	-8078
CLOS	-8079
acts	-8080
ador	-8081
aine	-8082
irds	-8083
oche	-8084
oded	-8085
orig	-8086
oves	-8087
roke	-8088
▁10,	-8089
▁API	-8090
▁Bol	-8091
▁Cub	-8092
▁Dam	-8093
▁Dom	-8094
▁FOR	-8095
▁Kim	-8096
▁Lip	-8097
▁Men	-8098
▁Nev	-8099
▁Nut	-8100
▁Ros	-8101
▁Sil	-8102
▁dys	-8103
▁fib	-8104
▁gro	-8105
▁mur	-8106
▁vom	-8107
child	-8108
cture	-8109
essee	-8110
mingb	-8111
prise	-8112
thrit	-8113
▁Desc	-8114
▁Face	-8115
▁Gall	-8116
▁Indo	-8117
▁Krom	-8118
▁Magn	-8119
▁Mean	-8120
▁Phot	-8121
▁Sant	-8122
▁View	-8123
▁Word	-8124
▁amyl	-8125
▁dies	-8126
▁edge	-8127
▁empt	-8128
▁fest	-8129
▁fled	-8130
▁impl	-8131
▁mart	-8132
▁plot	-8133
▁pron	-8134
▁radi	-8135
▁rope	-8136
▁tall	-8137
▁thro	-8138
aments	-8139
ashion	-8140
dation	-8141
hentic	-8142
orient	-8143
ricted	-8144
▁2010.	-8145
▁Anton	-8146
▁Eaton	-8147
▁Major	-8148
▁aimed	-8149
▁bread	-8150
▁finds	-8151
▁grain	-8152
▁hopes	-8153
▁meals	-8154
▁outer	-8155
▁paras	-8156
▁plays	-8157
▁ratio	-8158
▁reson	-8159
▁sched	-8160
▁shift	-8161
▁stead	-8162
▁stone	-8163
angered	-8164
istical	-8165
▁Bureau	-8166
▁Darfur	-8167
▁Spring	-8168
▁appeal	-8169
▁client	-8170
▁couldn	-8171
▁danger	-8172
▁deeper	-8173
▁poetry	-8174
ensation	-8175
olecular	-8176
▁Affairs	-8177
▁Zealand	-8178
▁charact	-8179
▁citizen	-8180
▁compare	-8181
▁defines	-8182
▁diverse	-8183
▁holiday	-8184
▁married	-8185
▁mounted	-8186
▁musical	-8187
▁pointed	-8188
▁printed	-8189
▁pulleys	-8190
▁reverse	-8191
▁seeking	-8192
▁serving	-8193
▁sitting	-8194
▁strange	-8195
ghanistan	-8196
▁Ethernet	-8197
▁Examples	-8198
▁Movement	-8199
▁Williams	-8200
▁accompan	-8201
▁compress	-8202
▁coverage	-8203
▁dementia	-8204
▁ensuring	-8205
▁everyday	-8206
▁explicit	-8207
▁judgment	-8208
▁maritime	-8209
▁occupied	-8210
▁operated	-8211
▁spectrum	-8212
▁sunlight	-8213
▁addressed	-8214
▁ancestors	-8215
▁bacterial	-8216
▁confirmed	-8217
▁eliminate	-8218
▁scenarios	-8219
▁sentences	-8220
▁specified	-8221
▁Historical	-8222
▁confidence	-8223
▁deficiency	-8224
▁healthcare	-8225
▁maintained	-8226
▁registered	-8227
▁Agriculture	-8228
▁considering	-8229
▁contributed	-8230
▁descendants	-8231
▁discoveries	-8232
▁identifying	-8233
▁requirement	-8234
▁Additionally	-8235
▁acquaintance	-8236
▁contribution	-8237
▁conversation	-8238
▁descriptions	-8239
▁consideration	-8240
▁interpretation	-8241
',	-8242
41	-8243
87	-8244
9;	-8245
De	-8246
QL	-8247
TO	-8248
UD	-8249
br	-8250
ami	-8251
amy	-8252
him	-8253
▁42	-8254
▁46	-8255
▁Ep	-8256
▁UV	-8257
▁da	-8258
▁ho	-8259
agen	-8260
agon	-8261
ften	-8262
icts	-8263
ieve	-8264
iner	-8265
inqu	-8266
ippi	-8267
last	-8268
mary	-8269
omer	-8270
otal	-8271
rity	-8272
this	-8273
yles	-8274
▁11,	-8275
▁12,	-8276
▁120	-8277
▁18,	-8278
▁30,	-8279
▁504	-8280
▁Age	-8281
▁Bur	-8282
▁Cra	-8283
▁Dra	-8284
▁FIG	-8285
▁Kid	-8286
▁NOT	-8287
▁Rob	-8288
▁USA	-8289
▁dye	-8290
▁soy	-8291
▁thy	-8292
▁vac	-8293
cling	-8294
ivest	-8295
quate	-8296
▁1920	-8297
▁Cold	-8298
▁Fish	-8299
▁Kamp	-8300
▁Navy	-8301
▁Orig	-8302
▁Resp	-8303
▁Sund	-8304
▁batt	-8305
▁blow	-8306
▁girl	-8307
▁hero	-8308
▁lawn	-8309
▁mine	-8310
▁mira	-8311
▁obst	-8312
▁spat	-8313
▁suit	-8314
▁tang	-8315
▁tick	-8316
▁tons	-8317
▁wars	-8318
antine	-8319
cience	-8320
nesota	-8321
ongoro	-8322
ptions	-8323
▁Defin	-8324
▁Force	-8325
▁Trial	-8326
▁beats	-8327
▁boost	-8328
▁cache	-8329
▁fiber	-8330
▁flash	-8331
▁gases	-8332
▁laser	-8333
▁marks	-8334
▁metap	-8335
▁noise	-8336
▁panel	-8337
▁resid	-8338
▁roots	-8339
▁ruled	-8340
▁smart	-8341
▁ultra	-8342
atories	-8343
duction	-8344
issippi	-8345
▁Assess	-8346
▁Future	-8347
▁Polish	-8348
▁Theory	-8349
▁angles	-8350
▁devast	-8351
▁funded	-8352
▁habits	-8353
▁harder	-8354
▁perpet	-8355
▁prophe	-8356
▁racial	-8357
▁ruling	-8358
▁sevent	-8359
▁spaces	-8360
▁street	-8361
▁traits	-8362
▁Stephen	-8363
▁Writing	-8364
▁adapted	-8365
▁convert	-8366
▁disrupt	-8367
▁evolved	-8368
▁gardens	-8369
▁grounds	-8370
▁lessons	-8371
▁mothers	-8372
▁permits	-8373
▁privile	-8374
▁ranging	-8375
▁reaches	-8376
▁streets	-8377
effective	-8378
including	-8379
▁Michigan	-8380
▁Scotland	-8381
▁aircraft	-8382
▁engineer	-8383
▁finished	-8384
▁fraction	-8385
▁inherent	-8386
▁moderate	-8387
▁overwhel	-8388
▁realized	-8389
▁scenario	-8390
▁settings	-8391
▁Hungarian	-8392
▁Microsoft	-8393
▁Minnesota	-8394
▁associate	-8395
▁container	-8396
▁discharge	-8397
▁predicted	-8398
▁prisoners	-8399
▁residence	-8400
▁uncertain	-8401
▁Scientific	-8402
▁activation	-8403
▁calculated	-8404
▁characters	-8405
▁conducting	-8406
▁consisting	-8407
▁industries	-8408
▁nineteenth	-8409
▁references	-8410
▁traditions	-8411
▁determining	-8412
▁maintaining	-8413
▁measurement	-8414
▁availability	-8415
32	-8416
6)	-8417
PS	-8418
7).	-8419
ROM	-8420
cel	-8421
cha	-8422
got	-8423
nds	-8424
osl	-8425
pan	-8426
pus	-8427
▁(5	-8428
▁MA	-8429
▁NO	-8430
aund	-8431
esar	-8432
only	-8433
quar	-8434
rong	-8435
word	-8436
▁15,	-8437
▁16,	-8438
▁17,	-8439
▁Cho	-8440
▁Gas	-8441
▁Has	-8442
▁Imm	-8443
▁MDS	-8444
▁Sep	-8445
▁Van	-8446
▁fab	-8447
▁ham	-8448
▁rig	-8449
▁sor	-8450
▁tag	-8451
ATION	-8452
acing	-8453
ashes	-8454
bered	-8455
eping	-8456
ifted	-8457
isdom	-8458
itate	-8459
ocent	-8460
oston	-8461
owned	-8462
phone	-8463
▁Bran	-8464
▁Bush	-8465
▁Jane	-8466
▁Kids	-8467
▁Mess	-8468
▁Tele	-8469
▁Tour	-8470
▁bibl	-8471
▁coca	-8472
▁prey	-8473
▁prox	-8474
▁rank	-8475
▁rely	-8476
▁roof	-8477
▁teen	-8478
▁tube	-8479
isting	-8480
ronius	-8481
stract	-8482
▁2008,	-8483
▁Colon	-8484
▁Event	-8485
▁Gradu	-8486
▁Think	-8487
▁airpl	-8488
▁beans	-8489
▁gifts	-8490
▁guess	-8491
▁males	-8492
▁maybe	-8493
▁owner	-8494
▁pione	-8495
▁poles	-8496
▁remed	-8497
▁searc	-8498
▁seeds	-8499
▁tapes	-8500
▁trick	-8501
▁wheat	-8502
▁zones	-8503
akistan	-8504
ometers	-8505
▁Astron	-8506
▁Boston	-8507
▁Disord	-8508
▁Family	-8509
▁Morisc	-8510
▁Observ	-8511
▁Safety	-8512
▁Spirit	-8513
▁Territ	-8514
▁Turkey	-8515
▁accord	-8516
▁bitter	-8517
▁button	-8518
▁colour	-8519
▁copper	-8520
▁counts	-8521
▁decide	-8522
▁export	-8523
▁facing	-8524
▁notion	-8525
▁proven	-8526
▁regime	-8527
▁silver	-8528
▁tackle	-8529
▁torque	-8530
adequate	-8531
attering	-8532
▁Abraham	-8533
▁Everest	-8534
▁Harvard	-8535
▁Ottoman	-8536
▁altered	-8537
▁asphalt	-8538
▁density	-8539
▁elderly	-8540
▁exhibit	-8541
▁females	-8542
▁focuses	-8543
▁infants	-8544
▁instant	-8545
▁obesity	-8546
▁partner	-8547
▁privacy	-8548
▁streams	-8549
▁suspect	-8550
▁voltage	-8551
aturation	-8552
gorongoro	-8553
▁Clinical	-8554
▁Culinary	-8555
▁Electric	-8556
▁attended	-8557
▁breaking	-8558
▁category	-8559
▁colonial	-8560
▁consumed	-8561
▁depicted	-8562
▁eligible	-8563
▁hummingb	-8564
▁licensed	-8565
▁magazine	-8566
▁pathways	-8567
▁petition	-8568
▁pipeline	-8569
▁sampling	-8570
▁stepping	-8571
▁suddenly	-8572
▁Cambridge	-8573
▁Charlotte	-8574
▁Submitted	-8575
▁Tennessee	-8576
▁celebrate	-8577
▁democracy	-8578
▁expertise	-8579
▁initially	-8580
▁jurisdict	-8581
▁ourselves	-8582
▁preserved	-8583
▁separated	-8584
▁seriously	-8585
▁advantages	-8586
▁boundaries	-8587
▁prevalence	-8588
▁university	-8589
▁Afghanistan	-8590
▁Mississippi	-8591
▁improvement	-8592
▁integration	-8593
▁theoretical	-8594
▁establishing	-8595
▁evolutionary	-8596
▁intelligence	-8597
▁demonstration	-8598
▁revolutionary	-8599
▁constitutional	-8600
▁representation	-8601
.’	-8602
Ar	-8603
Cl	-8604
GF	-8605
RA	-8606
TM	-8607
mm	-8608
pg	-8609
ua	-8610
uy	-8611
zz	-8612
Pro	-8613
See	-8614
add	-8615
lah	-8616
▁IV	-8617
▁NE	-8618
▁NY	-8619
▁PL	-8620
▁Pi	-8621
▁TO	-8622
ague	-8623
arks	-8624
avor	-8625
conf	-8626
ifer	-8627
lock	-8628
neys	-8629
nsic	-8630
owed	-8631
phal	-8632
▁13,	-8633
▁DOE	-8634
▁Jay	-8635
▁Nat	-8636
▁Neg	-8637
▁Sup	-8638
▁TCP	-8639
▁Tom	-8640
▁lip	-8641
▁pup	-8642
▁vot	-8643
▁wip	-8644
acher	-8645
ailed	-8646
aware	-8647
endix	-8648
ermat	-8649
eting	-8650
habil	-8651
haust	-8652
kelet	-8653
orter	-8654
riend	-8655
rings	-8656
sized	-8657
▁1950	-8658
▁Bell	-8659
▁Jeff	-8660
▁Mond	-8661
▁Poll	-8662
▁Sent	-8663
▁Text	-8664
▁dict	-8665
▁frag	-8666
▁holy	-8667
▁murd	-8668
▁myst	-8669
▁neck	-8670
▁rabb	-8671
▁rail	-8672
▁sale	-8673
▁tomb	-8674
▁verb	-8675
elfare	-8676
encing	-8677
enthic	-8678
erally	-8679
uation	-8680
ulsion	-8681
urning	-8682
▁2011,	-8683
▁Again	-8684
▁Based	-8685
▁Bloom	-8686
▁Chief	-8687
▁Incre	-8688
▁Polit	-8689
▁agent	-8690
▁aging	-8691
▁amend	-8692
▁array	-8693
▁assim	-8694
▁auton	-8695
▁conce	-8696
▁draft	-8697
▁faces	-8698
▁filed	-8699
▁fires	-8700
▁heads	-8701
▁intra	-8702
▁lingu	-8703
▁pursu	-8704
▁solve	-8705
▁spoke	-8706
▁stick	-8707
▁straw	-8708
inosaur	-8709
ipation	-8710
ivities	-8711
▁Altern	-8712
▁Applic	-8713
▁Atmosp	-8714
▁Contin	-8715
▁Maasai	-8716
▁Select	-8717
▁Unlike	-8718
▁analys	-8719
▁contra	-8720
▁convey	-8721
▁fabric	-8722
▁metals	-8723
▁neighb	-8724
▁orange	-8725
▁parrot	-8726
▁posted	-8727
▁storms	-8728
▁tribal	-8729
▁twelve	-8730
▁viewed	-8731
▁wouldn	-8732
elescope	-8733
liminary	-8734
roscopic	-8735
▁Supreme	-8736
▁aquatic	-8737
▁cloning	-8738
▁discipl	-8739
▁dispers	-8740
▁drawing	-8741
▁electro	-8742
▁emerged	-8743
▁falling	-8744
▁fashion	-8745
▁heavily	-8746
▁islands	-8747
▁offices	-8748
▁polymer	-8749
▁reforms	-8750
▁smoking	-8751
▁targets	-8752
▁varying	-8753
▁wounded	-8754
▁Minister	-8755
▁Orthodox	-8756
▁Planning	-8757
▁Regional	-8758
▁abronius	-8759
▁antioxid	-8760
▁applying	-8761
▁cellular	-8762
▁contents	-8763
▁disabled	-8764
▁governor	-8765
▁incident	-8766
▁monument	-8767
▁outcomes	-8768
▁overcome	-8769
▁pavement	-8770
▁priority	-8771
▁sciences	-8772
▁spelling	-8773
▁thorough	-8774
▁Communist	-8775
▁Represent	-8776
▁Sometimes	-8777
▁Victorian	-8778
▁abandoned	-8779
▁broadcast	-8780
▁converted	-8781
▁districts	-8782
▁expanding	-8783
▁gradually	-8784
▁inherited	-8785
▁listeners	-8786
▁municipal	-8787
▁mutations	-8788
▁objective	-8789
▁submitted	-8790
▁Literature	-8791
▁Ngorongoro	-8792
▁concerning	-8793
▁curriculum	-8794
▁disability	-8795
▁pollutants	-8796
▁protective	-8797
▁regardless	-8798
▁Engineering	-8799
▁celebration	-8800
▁degradation	-8801
▁ingredients	-8802
▁transferred	-8803
▁Disabilities	-8804
▁Nevertheless	-8805
▁demonstrates	-8806
▁implications	-8807
▁presentation	-8808
▁participating	-8809
AB	-8810
MP	-8811
NE	-8812
Re	-8813
SC	-8814
UC	-8815
WM	-8816
].	-8817
:||	-8818
OGY	-8819
abs	-8820
aic	-8821
ald	-8822
arn	-8823
dri	-8824
imm	-8825
ogs	-8826
oul	-8827
pos	-8828
rip	-8829
rul	-8830
ube	-8831
ugh	-8832
una	-8833
▁1/	-8834
▁Oh	-8835
airy	-8836
aria	-8837
asso	-8838
bles	-8839
ewis	-8840
exts	-8841
hips	-8842
idae	-8843
ithe	-8844
oids	-8845
ruit	-8846
unar	-8847
utch	-8848
writ	-8849
▁Ash	-8850
▁Gre	-8851
▁Hop	-8852
▁Hug	-8853
▁OCR	-8854
▁Occ	-8855
▁SCD	-8856
▁Vit	-8857
▁ion	-8858
▁nan	-8859
▁ped	-8860
▁rit	-8861
grade	-8862
green	-8863
rical	-8864
shore	-8865
worth	-8866
▁1930	-8867
▁1960	-8868
▁Amaz	-8869
▁Ches	-8870
▁Farm	-8871
▁Houd	-8872
▁Leon	-8873
▁amaz	-8874
▁bore	-8875
▁nice	-8876
▁rent	-8877
▁sees	-8878
▁shed	-8879
▁span	-8880
▁wake	-8881
coming	-8882
iatric	-8883
inates	-8884
olving	-8885
orious	-8886
rusted	-8887
▁2007.	-8888
▁Initi	-8889
▁Local	-8890
▁Point	-8891
▁Satur	-8892
▁chose	-8893
▁discl	-8894
▁frame	-8895
▁guild	-8896
▁liver	-8897
▁monks	-8898
▁persu	-8899
▁robot	-8900
▁tamar	-8901
▁worry	-8902
induced	-8903
▁Action	-8904
▁Garden	-8905
▁Police	-8906
▁Policy	-8907
▁amphip	-8908
▁behalf	-8909
▁burden	-8910
▁campus	-8911
▁comets	-8912
▁corner	-8913
▁deaths	-8914
▁digest	-8915
▁flower	-8916
▁genome	-8917
▁horses	-8918
▁incent	-8919
▁infect	-8920
▁lifest	-8921
▁paying	-8922
▁ritual	-8923
▁speeds	-8924
▁struck	-8925
ceptions	-8926
ployment	-8927
▁Austria	-8928
▁Houdini	-8929
▁Physics	-8930
▁accused	-8931
▁anticip	-8932
▁carries	-8933
▁editing	-8934
▁episode	-8935
▁factory	-8936
▁lineage	-8937
▁loyalty	-8938
▁manager	-8939
▁mineral	-8940
▁planted	-8941
▁proceed	-8942
▁quantum	-8943
▁realize	-8944
▁reprodu	-8945
▁threats	-8946
hydration	-8947
iological	-8948
▁announce	-8949
▁anywhere	-8950
▁arranged	-8951
▁believes	-8952
▁bringing	-8953
▁channels	-8954
▁constitu	-8955
▁contexts	-8956
▁exchange	-8957
▁friendly	-8958
▁internet	-8959
▁invasion	-8960
▁planting	-8961
▁shopping	-8962
▁sleeping	-8963
▁traveled	-8964
▁workshop	-8965
▁Available	-8966
▁Katherine	-8967
▁Reference	-8968
▁arguments	-8969
▁authentic	-8970
▁belonging	-8971
▁intention	-8972
▁migration	-8973
▁tolerance	-8974
▁universal	-8975
▁attractive	-8976
▁celebrated	-8977
▁inadequate	-8978
▁objectives	-8979
▁provincial	-8980
▁television	-8981
▁variations	-8982
▁circulation	-8983
▁conclusions	-8984
▁conjunction	-8985
▁transmitted	-8986
▁accomplished	-8987
▁capabilities	-8988
▁establishment	-8989
▁Meteorological	-8990
%.	-8991
1;	-8992
9)	-8993
92	-8994
ME	-8995
SF	-8996
WR	-8997
ba	-8998
pd	-8999
.).	-9000
asy	-9001
auc	-9002
aud	-9003
def	-9004
fil	-9005
hus	-9006
iat	-9007
occ	-9008
usc	-9009
▁41	-9010
▁4:	-9011
▁BC	-9012
▁CH	-9013
▁PC	-9014
ells	-9015
eros	-9016
ffee	-9017
gedy	-9018
ican	-9019
iens	-9020
inar	-9021
itar	-9022
nedy	-9023
ntil	-9024
ocal	-9025
olar	-9026
olph	-9027
otan	-9028
pled	-9029
rine	-9030
road	-9031
they	-9032
uild	-9033
zone	-9034
▁11.	-9035
▁AMP	-9036
▁Ern	-9037
▁Hus	-9038
▁Leg	-9039
▁cas	-9040
▁fur	-9041
▁pec	-9042
▁ram	-9043
▁sho	-9044
▁vic	-9045
OLOGY	-9046
agree	-9047
archy	-9048
atern	-9049
bumin	-9050
grams	-9051
icacy	-9052
isons	-9053
ommod	-9054
phant	-9055
rible	-9056
▁1994	-9057
▁Answ	-9058
▁Bang	-9059
▁Ezra	-9060
▁Guid	-9061
▁Homo	-9062
▁Less	-9063
▁Matt	-9064
▁Mind	-9065
▁Redu	-9066
▁Take	-9067
▁Vide	-9068
▁bark	-9069
▁bind	-9070
▁biom	-9071
▁boat	-9072
▁diam	-9073
▁duty	-9074
▁flaw	-9075
▁furn	-9076
▁legs	-9077
▁pept	-9078
▁quas	-9079
▁rows	-9080
astery	-9081
ighter	-9082
ingham	-9083
iotics	-9084
ipedia	-9085
itives	-9086
nesday	-9087
opatra	-9088
ounced	-9089
overty	-9090
owered	-9091
spring	-9092
ulates	-9093
▁Blood	-9094
▁Board	-9095
▁Brain	-9096
▁Forum	-9097
▁Heart	-9098
▁Hindu	-9099
▁Large	-9100
▁Learn	-9101
▁Lewis	-9102
▁Moore	-9103
▁Years	-9104
▁acute	-9105
▁adhes	-9106
▁advis	-9107
▁cents	-9108
▁enact	-9109
▁ended	-9110
▁enemy	-9111
▁erect	-9112
▁farms	-9113
▁loads	-9114
▁lying	-9115
▁match	-9116
▁safer	-9117
▁smoke	-9118
▁snake	-9119
▁steep	-9120
▁tooth	-9121
▁votes	-9122
develop	-9123
heasant	-9124
ovenant	-9125
▁Kamrul	-9126
▁Others	-9127
▁Within	-9128
▁acoust	-9129
▁archae	-9130
▁beauty	-9131
▁bigger	-9132
▁calend	-9133
▁domain	-9134
▁filter	-9135
▁hardly	-9136
▁kinase	-9137
▁loaded	-9138
▁losing	-9139
▁plenty	-9140
▁prince	-9141
▁racism	-9142
▁routes	-9143
▁stator	-9144
▁terror	-9145
▁thinks	-9146
▁thread	-9147
▁Gallery	-9148
▁Monitor	-9149
▁Related	-9150
▁Virtual	-9151
▁Whether	-9152
▁beliefs	-9153
▁boiling	-9154
▁counted	-9155
▁deliber	-9156
▁exhaust	-9157
▁finance	-9158
▁homogen	-9159
▁insulin	-9160
▁pathway	-9161
▁resolve	-9162
▁roughly	-9163
▁victory	-9164
▁advances	-9165
▁artistic	-9166
▁declined	-9167
▁defeated	-9168
▁emotions	-9169
▁entrance	-9170
▁frontier	-9171
▁graduate	-9172
▁informed	-9173
▁keyboard	-9174
▁metaphor	-9175
▁offering	-9176
▁potatoes	-9177
▁speakers	-9178
▁spinning	-9179
▁tendency	-9180
▁ultimate	-9181
ologically	-9182
▁Cleopatra	-9183
▁Secretary	-9184
▁consensus	-9185
▁petroleum	-9186
▁prohibits	-9187
▁referring	-9188
▁sequences	-9189
▁wonderful	-9190
▁agreements	-9191
▁apparently	-9192
▁collective	-9193
▁facilitate	-9194
▁governance	-9195
▁impressive	-9196
▁regulation	-9197
▁accompanied	-9198
▁investigate	-9199
▁supplements	-9200
▁territories	-9201
▁congregation	-9202
▁intermediate	-9203
▁occasionally	-9204
▁representing	-9205
▁philosophical	-9206
▁environmentally	-9207
2;	-9208
8;	-9209
95	-9210
AV	-9211
Ab	-9212
IO	-9213
hi	-9214
-15	-9215
How	-9216
ali	-9217
aze	-9218
har	-9219
hot	-9220
isk	-9221
olk	-9222
oub	-9223
she	-9224
uct	-9225
uli	-9226
▁3:	-9227
▁44	-9228
▁Ha	-9229
▁Ts	-9230
▁Ve	-9231
▁cm	-9232
▁ye	-9233
anol	-9234
conn	-9235
door	-9236
gars	-9237
ieth	-9238
lude	-9239
mers	-9240
opic	-9241
ptic	-9242
roit	-9243
type	-9244
▁14,	-9245
▁16.	-9246
▁DLL	-9247
▁Fil	-9248
▁Lee	-9249
▁Les	-9250
▁Lib	-9251
▁Lim	-9252
▁Non	-9253
▁Sed	-9254
▁Ten	-9255
▁adm	-9256
▁cab	-9257
▁jpg	-9258
cking	-9259
ecess	-9260
ieval	-9261
iligo	-9262
ilton	-9263
inced	-9264
itter	-9265
names	-9266
▁Ball	-9267
▁Barb	-9268
▁Care	-9269
▁Coll	-9270
▁Kent	-9271
▁Mend	-9272
▁Sens	-9273
▁Turk	-9274
▁Turn	-9275
▁Year	-9276
▁bulk	-9277
▁drum	-9278
▁ears	-9279
▁ease	-9280
▁foal	-9281
▁forb	-9282
▁glac	-9283
▁jars	-9284
▁lapt	-9285
▁mile	-9286
▁palm	-9287
▁pile	-9288
▁purs	-9289
▁seal	-9290
▁ties	-9291
▁wash	-9292
Europe	-9293
aneous	-9294
demark	-9295
itated	-9296
lahoma	-9297
makers	-9298
osures	-9299
prises	-9300
ranean	-9301
urrent	-9302
ursday	-9303
vation	-9304
▁2005.	-9305
▁Agree	-9306
▁Bruce	-9307
▁Enter	-9308
▁Place	-9309
▁Which	-9310
▁alike	-9311
▁cargo	-9312
▁cheap	-9313
▁cloud	-9314
▁deleg	-9315
▁edges	-9316
▁fever	-9317
▁harsh	-9318
▁inert	-9319
▁inner	-9320
▁naval	-9321
▁pilot	-9322
▁posts	-9323
▁rises	-9324
▁shade	-9325
▁sorts	-9326
▁subsc	-9327
▁worst	-9328
atively	-9329
berries	-9330
erenget	-9331
keletal	-9332
▁Little	-9333
▁Morgan	-9334
▁Posted	-9335
▁Ptosis	-9336
▁Search	-9337
▁Seeing	-9338
▁Server	-9339
▁Sunday	-9340
▁abdita	-9341
▁advent	-9342
▁aggreg	-9343
▁argues	-9344
▁corpor	-9345
▁earned	-9346
▁extens	-9347
▁heaven	-9348
▁hybrid	-9349
▁hypers	-9350
▁linear	-9351
▁murder	-9352
▁mutual	-9353
▁passes	-9354
▁reader	-9355
▁remind	-9356
▁replic	-9357
▁respir	-9358
▁shapes	-9359
▁string	-9360
▁valley	-9361
American	-9362
▁Century	-9363
▁Commons	-9364
▁Discuss	-9365
▁Islands	-9366
▁Kennedy	-9367
▁Product	-9368
▁Species	-9369
▁ceiling	-9370
▁closest	-9371
▁drivers	-9372
▁envelop	-9373
▁healing	-9374
▁infring	-9375
▁liberal	-9376
▁optimal	-9377
▁passion	-9378
▁preserv	-9379
▁radical	-9380
▁screens	-9381
▁secular	-9382
▁somehow	-9383
▁spatial	-9384
▁strains	-9385
▁tourism	-9386
▁wearing	-9387
▁welfare	-9388
resistant	-9389
▁Archives	-9390
▁Economic	-9391
▁Saturday	-9392
▁Thursday	-9393
▁annually	-9394
▁approval	-9395
▁artisans	-9396
▁educated	-9397
▁enhanced	-9398
▁favorite	-9399
▁messages	-9400
▁neurolog	-9401
▁particle	-9402
▁vomiting	-9403
▁withdraw	-9404
▁chemistry	-9405
▁classical	-9406
▁evaluated	-9407
▁purchased	-9408
▁requiring	-9409
▁substrate	-9410
dimensional	-9411
▁Additional	-9412
▁accessible	-9413
▁accomplish	-9414
▁constitute	-9415
▁earthquake	-9416
▁innovation	-9417
▁innovative	-9418
▁overweight	-9419
▁pesticides	-9420
▁solidarity	-9421
▁differently	-9422
▁exceptional	-9423
▁investments	-9424
▁Desalination	-9425
▁denaturation	-9426
▁mathematical	-9427
▁pretreatment	-9428
▁possibilities	-9429
46	-9430
BM	-9431
En	-9432
My	-9433
la	-9434
ta	-9435
-18	-9436
Add	-9437
Cat	-9438
Har	-9439
aft	-9440
aug	-9441
dor	-9442
law	-9443
mel	-9444
nia	-9445
ovo	-9446
rue	-9447
zes	-9448
éia	-9449
▁2)	-9450
▁85	-9451
▁FT	-9452
▁Fa	-9453
▁PH	-9454
▁Py	-9455
▁RE	-9456
▁YO	-9457
anda	-9458
ante	-9459
auts	-9460
chid	-9461
kisi	-9462
oard	-9463
onym	-9464
orph	-9465
rays	-9466
thal	-9467
uket	-9468
▁Amb	-9469
▁DVD	-9470
▁ISO	-9471
▁Inn	-9472
▁Jul	-9473
▁Max	-9474
▁Mic	-9475
▁Mos	-9476
▁Neu	-9477
▁Oak	-9478
▁PWM	-9479
▁Pen	-9480
▁Sci	-9481
▁Sir	-9482
▁cul	-9483
▁fet	-9484
▁god	-9485
▁lob	-9486
▁rom	-9487
▁tap	-9488
▁tip	-9489
aming	-9490
apped	-9491
ashed	-9492
icing	-9493
ishok	-9494
ogens	-9495
ongue	-9496
onsin	-9497
osity	-9498
regon	-9499
ribes	-9500
▁1000	-9501
▁Balt	-9502
▁Chem	-9503
▁Play	-9504
▁Road	-9505
▁Seal	-9506
▁bomb	-9507
▁burs	-9508
▁debt	-9509
▁gent	-9510
▁hier	-9511
▁ment	-9512
▁mini	-9513
▁pert	-9514
▁pref	-9515
▁rays	-9516
▁soph	-9517
▁swim	-9518
▁thou	-9519
acchar	-9520
achers	-9521
ainted	-9522
friend	-9523
▁2010,	-9524
▁Along	-9525
▁Award	-9526
▁Boliv	-9527
▁Chris	-9528
▁Front	-9529
▁Integ	-9530
▁Pharm	-9531
▁Torah	-9532
▁Treat	-9533
▁Upper	-9534
▁Write	-9535
▁aside	-9536
▁blind	-9537
▁coral	-9538
▁deals	-9539
▁diets	-9540
▁dimin	-9541
▁discs	-9542
▁eaten	-9543
▁empty	-9544
▁fifth	-9545
▁fifty	-9546
▁films	-9547
▁lease	-9548
▁likel	-9549
▁minim	-9550
▁pairs	-9551
▁solub	-9552
▁thank	-9553
▁vapor	-9554
▁vocal	-9555
through	-9556
▁Amazon	-9557
▁Beyond	-9558
▁Caesar	-9559
▁Declar	-9560
▁Easter	-9561
▁Labour	-9562
▁Lazare	-9563
▁Rating	-9564
▁Source	-9565
▁Summon	-9566
▁Temple	-9567
▁anemia	-9568
▁bought	-9569
▁burned	-9570
▁combat	-9571
▁copies	-9572
▁digits	-9573
▁edited	-9574
▁incred	-9575
▁multip	-9576
▁phases	-9577
▁piracy	-9578
▁propos	-9579
▁reluct	-9580
▁resist	-9581
▁sacred	-9582
▁salmon	-9583
▁serves	-9584
▁simult	-9585
▁sodium	-9586
▁sovere	-9587
▁spinal	-9588
▁submit	-9589
▁varies	-9590
cellular	-9591
▁Besides	-9592
▁Centers	-9593
▁Mediter	-9594
▁Russell	-9595
▁SELinux	-9596
▁Working	-9597
▁arrival	-9598
▁barrels	-9599
▁clients	-9600
▁cooking	-9601
▁devoted	-9602
▁dietary	-9603
▁dismiss	-9604
▁enables	-9605
▁gradual	-9606
▁ignored	-9607
▁minimal	-9608
▁patches	-9609
▁reactor	-9610
▁reveals	-9611
▁schemes	-9612
▁stepper	-9613
▁unclear	-9614
▁utility	-9615
▁vassals	-9616
▁welcome	-9617
matically	-9618
ufficient	-9619
▁Facebook	-9620
▁Langston	-9621
▁Pakistan	-9622
▁Serenget	-9623
▁acquired	-9624
▁drawings	-9625
▁forensic	-9626
▁meetings	-9627
▁meniscus	-9628
▁quantity	-9629
▁receives	-9630
▁reflects	-9631
▁relating	-9632
▁reserves	-9633
▁striking	-9634
▁synchron	-9635
▁versions	-9636
▁watching	-9637
▁Molecular	-9638
▁Pollution	-9639
▁Questions	-9640
▁asteroids	-9641
▁detention	-9642
▁exploring	-9643
▁libraries	-9644
▁magnitude	-9645
▁prevented	-9646
▁promising	-9647
▁qualified	-9648
▁sunscreen	-9649
▁therapies	-9650
vertebrates	-9651
▁Collection	-9652
▁Democratic	-9653
▁aggressive	-9654
▁corruption	-9655
▁definitely	-9656
▁diplomatic	-9657
▁explaining	-9658
▁likelihood	-9659
▁metabolism	-9660
▁proportion	-9661
▁suggesting	-9662
▁Declaration	-9663
▁Perspective	-9664
▁antibiotics	-9665
▁influential	-9666
▁contaminants	-9667
▁experiencing	-9668
▁neighborhood	-9669
▁organisation	-9670
▁Mediterranean	-9671
▁Understanding	-9672
▁classification	-9673
▁identification	-9674
37	-9675
AE	-9676
NL	-9677
OD	-9678
UL	-9679
gr	-9680
tw	-9681
vi	-9682
11.	-9683
New	-9684
ala	-9685
owa	-9686
rub	-9687
ulu	-9688
urt	-9689
vin	-9690
▁48	-9691
▁Ka	-9692
▁PA	-9693
▁PK	-9694
▁SC	-9695
▁SY	-9696
▁TV	-9697
▁WW	-9698
▁dw	-9699
aman	-9700
anus	-9701
dule	-9702
four	-9703
gged	-9704
gins	-9705
isse	-9706
itic	-9707
izab	-9708
omon	-9709
ools	-9710
orus	-9711
otle	-9712
play	-9713
rypt	-9714
uman	-9715
vals	-9716
▁13.	-9717
▁188	-9718
▁31,	-9719
▁Ark	-9720
▁Enc	-9721
▁Fac	-9722
▁Ger	-9723
▁Hyd	-9724
▁Jun	-9725
▁PAR	-9726
▁Pra	-9727
▁SQL	-9728
▁adj	-9729
▁cyt	-9730
▁shr	-9731
▁vag	-9732
▁von	-9733
▁wat	-9734
amous	-9735
arded	-9736
ausea	-9737
books	-9738
cient	-9739
igate	-9740
ighth	-9741
imity	-9742
iolet	-9743
iotic	-9744
ocyte	-9745
oving	-9746
trans	-9747
ubble	-9748
ulvic	-9749
▁Case	-9750
▁Comb	-9751
▁Drug	-9752
▁Fire	-9753
▁Hans	-9754
▁Lith	-9755
▁Prof	-9756
▁Tell	-9757
▁Walk	-9758
▁bell	-9759
▁bits	-9760
▁craw	-9761
▁evil	-9762
▁fles	-9763
▁foam	-9764
▁hall	-9765
▁nose	-9766
▁nurs	-9767
▁push	-9768
▁vice	-9769
apters	-9770
irable	-9771
olding	-9772
olitan	-9773
profit	-9774
rained	-9775
stands	-9776
▁1,000	-9777
▁Arist	-9778
▁CITES	-9779
▁Death	-9780
▁Impro	-9781
▁Later	-9782
▁Still	-9783
▁Until	-9784
▁Young	-9785
▁algae	-9786
▁apple	-9787
▁arise	-9788
▁craft	-9789
▁cream	-9790
▁crown	-9791
▁fatal	-9792
▁flows	-9793
▁fract	-9794
▁fuels	-9795
▁hence	-9796
▁honey	-9797
▁juice	-9798
▁kings	-9799
▁newly	-9800
▁paths	-9801
▁rival	-9802
▁soils	-9803
▁strat	-9804
▁tends	-9805
▁thres	-9806
Iranian	-9807
dominal	-9808
isition	-9809
izabeth	-9810
ultural	-9811
▁Bulgar	-9812
▁Commer	-9813
▁Judges	-9814
▁Kepler	-9815
▁Number	-9816
▁Oregon	-9817
▁Should	-9818
▁acting	-9819
▁allerg	-9820
▁commod	-9821
▁geomet	-9822
▁grants	-9823
▁inland	-9824
▁outbre	-9825
▁reward	-9826
▁shield	-9827
▁stores	-9828
▁themes	-9829
▁timing	-9830
▁tracks	-9831
▁treaty	-9832
▁verteb	-9833
▁weekly	-9834
▁wooden	-9835
▁worker	-9836
aterials	-9837
isconsin	-9838
speaking	-9839
▁Between	-9840
▁Healthy	-9841
▁Hopkins	-9842
▁Perform	-9843
▁Poverty	-9844
▁Protect	-9845
▁Student	-9846
▁Subject	-9847
▁Surgery	-9848
▁Tibetan	-9849
▁assumed	-9850
▁bailiff	-9851
▁benthic	-9852
▁cheaper	-9853
▁circles	-9854
▁delinqu	-9855
▁enemies	-9856
▁fingers	-9857
▁imagery	-9858
▁insight	-9859
▁listing	-9860
▁logical	-9861
▁nesting	-9862
▁noticed	-9863
▁nucleus	-9864
▁organis	-9865
▁painful	-9866
▁phrases	-9867
▁players	-9868
▁restaur	-9869
▁revised	-9870
▁segment	-9871
▁telling	-9872
▁totally	-9873
▁violent	-9874
▁visited	-9875
▁Buddhism	-9876
▁Mountain	-9877
▁Oklahoma	-9878
▁clothing	-9879
▁deceased	-9880
▁deposits	-9881
▁develops	-9882
▁entities	-9883
▁heritage	-9884
▁horizont	-9885
▁managing	-9886
▁printing	-9887
▁province	-9888
▁rotating	-9889
▁unlikely	-9890
▁Different	-9891
▁Territory	-9892
▁directory	-9893
▁exposures	-9894
▁factories	-9895
▁isolation	-9896
▁obviously	-9897
▁offspring	-9898
▁precisely	-9899
▁routinely	-9900
▁satisfact	-9901
▁stimulate	-9902
▁surprised	-9903
▁surviving	-9904
▁temporary	-9905
▁volunteer	-9906
▁Controlled	-9907
▁Definition	-9908
▁accurately	-9909
▁attributes	-9910
▁complexity	-9911
▁generating	-9912
▁illustrate	-9913
▁occurrence	-9914
▁productive	-9915
▁respective	-9916
▁restricted	-9917
▁separation	-9918
habilitation	-9919
▁Brucellosis	-9920
▁brucellosis	-9921
▁consequence	-9922
▁interactive	-9923
▁photographs	-9924
▁progression	-9925
▁residential	-9926
▁susceptible	-9927
▁Christianity	-9928
▁Introduction	-9929
▁automatically	-9930
▁collaboration	-9931
▁comprehension	-9932
▁extraordinary	-9933
▁manufacturers	-9934
▁psychological	-9935
!"	-9936
**	-9937
24	-9938
EO	-9939
GT	-9940
TL	-9941
dn	-9942
ez	-9943
fl	-9944
fs	-9945
pa	-9946
yd	-9947
300	-9948
5).	-9949
:30	-9950
Red	-9951
boh	-9952
dep	-9953
ilk	-9954
ogi	-9955
ova	-9956
rog	-9957
ugu	-9958
upt	-9959
▁$1	-9960
▁4-	-9961
▁Ba	-9962
▁Gi	-9963
▁HP	-9964
▁Ot	-9965
▁TM	-9966
▁Ty	-9967
▁ma	-9968
▁vs	-9969
/200	-9970
agle	-9971
azid	-9972
emed	-9973
ethe	-9974
heme	-9975
olis	-9976
otyp	-9977
ouds	-9978
oval	-9979
pert	-9980
sets	-9981
umps	-9982
▁(15	-9983
▁178	-9984
▁20,	-9985
▁22,	-9986
▁Box	-9987
▁Dev	-9988
▁Eye	-9989
▁FDA	-9990
▁Had	-9991
▁IBS	-9992
▁IDE	-9993
▁MIT	-9994
▁McC	-9995
▁Neb	-9996
▁Ost	-9997
▁Tre	-9998
▁USS	-9999
▁Ult	-10000
▁Wal	-10001
▁blu	-10002
berry	-10003
borne	-10004
elect	-10005
enger	-10006
iders	-10007
ioned	-10008
ocial	-10009
olesc	-10010
oscop	-10011
oured	-10012
ppers	-10013
words	-10014
▁Coop	-10015
▁Cost	-10016
▁Dead	-10017
▁Ford	-10018
▁Gent	-10019
▁Hard	-10020
▁Much	-10021
▁OSHA	-10022
▁Priv	-10023
▁Requ	-10024
▁Rest	-10025
▁Tech	-10026
▁Term	-10027
▁Wall	-10028
▁aver	-10029
▁bare	-10030
▁clip	-10031
▁cord	-10032
▁dual	-10033
▁intr	-10034
▁lamp	-10035
▁lock	-10036
▁loop	-10037
▁pled	-10038
▁pock	-10039
▁pool	-10040
▁sche	-10041
▁slop	-10042
▁unto	-10043
acular	-10044
apeake	-10045
essive	-10046
icular	-10047
inator	-10048
inking	-10049
iosity	-10050
onents	-10051
opithe	-10052
ouling	-10053
shaped	-10054
▁2009,	-10055
▁Andre	-10056
▁Beach	-10057
▁Chair	-10058
▁Right	-10059
▁Stock	-10060
▁adopt	-10061
▁artif	-10062
▁datas	-10063
▁essay	-10064
▁fails	-10065
▁fraud	-10066
▁legit	-10067
▁logic	-10068
▁migra	-10069
▁mosqu	-10070
▁neare	-10071
▁noble	-10072
▁penal	-10073
▁piles	-10074
▁remem	-10075
▁shell	-10076
▁spell	-10077
▁unity	-10078
▁urine	-10079
▁vigor	-10080
▁wider	-10081
▁winds	-10082
actions	-10083
cession	-10084
olition	-10085
▁Jersey	-10086
▁Korean	-10087
▁Lipica	-10088
▁Mobile	-10089
▁Phuket	-10090
▁Rather	-10091
▁advers	-10092
▁brains	-10093
▁breath	-10094
▁coffee	-10095
▁decomp	-10096
▁deform	-10097
▁finger	-10098
▁hunter	-10099
▁inspir	-10100
▁joints	-10101
▁juries	-10102
▁orders	-10103
▁retrie	-10104
▁safely	-10105
▁shadow	-10106
▁switch	-10107
▁tempor	-10108
........	-10109
bullying	-10110
erations	-10111
oriented	-10112
outheast	-10113
vernment	-10114
▁Abrahim	-10115
▁Digital	-10116
▁Mahomat	-10117
▁Quality	-10118
▁Reading	-10119
▁Support	-10120
▁consume	-10121
▁extinct	-10122
▁fathers	-10123
▁handled	-10124
▁herself	-10125
▁newborn	-10126
▁ovarian	-10127
▁pharmac	-10128
▁raising	-10129
▁sensors	-10130
▁strikes	-10131
▁symbols	-10132
▁turkeys	-10133
▁warning	-10134
isticated	-10135
ovascular	-10136
▁Analysis	-10137
▁Diseases	-10138
▁Moriscos	-10139
▁accommod	-10140
▁analyses	-10141
▁calendar	-10142
▁covenant	-10143
▁deterior	-10144
▁exciting	-10145
▁perceive	-10146
▁prosecut	-10147
▁reaching	-10148
▁searches	-10149
▁Elizabeth	-10150
▁Extension	-10151
▁Meanwhile	-10152
▁Palestine	-10153
▁Published	-10154
▁Serengeti	-10155
▁Wednesday	-10156
▁Wisconsin	-10157
▁batteries	-10158
▁developer	-10159
▁interfere	-10160
▁machinery	-10161
▁personnel	-10162
▁practiced	-10163
▁preschool	-10164
▁spreading	-10165
▁witnesses	-10166
▁Chesapeake	-10167
▁accordance	-10168
▁acquainted	-10169
▁designated	-10170
▁developers	-10171
▁documented	-10172
▁everywhere	-10173
▁filesystem	-10174
▁newspapers	-10175
▁occasional	-10176
▁parliament	-10177
▁physically	-10178
▁reasonable	-10179
▁scattering	-10180
▁specialist	-10181
▁surrounded	-10182
▁Atmospheric	-10183
▁Sustainable	-10184
▁challenging	-10185
▁suggestions	-10186
▁transformed	-10187
▁administered	-10188
▁dramatically	-10189
▁installation	-10190
▁reproduction	-10191
▁documentation	-10192
▁communications	-10193
!)	-10194
7-	-10195
CA	-10196
DL	-10197
GE	-10198
IH	-10199
VM	-10200
ea	-10201
ja	-10202
▁%	-10203
RNA	-10204
SoC	-10205
adi	-10206
adr	-10207
box	-10208
dal	-10209
ema	-10210
gic	-10211
lyn	-10212
pdf	-10213
rov	-10214
▁(9	-10215
▁06	-10216
▁1-	-10217
▁38	-10218
▁Br	-10219
▁ES	-10220
▁Hi	-10221
▁Lu	-10222
▁MB	-10223
▁af	-10224
ESCO	-10225
adic	-10226
econ	-10227
eous	-10228
ihan	-10229
inth	-10230
irms	-10231
irus	-10232
iths	-10233
onia	-10234
path	-10235
rove	-10236
sett	-10237
span	-10238
text	-10239
ught	-10240
▁10-	-10241
▁15.	-10242
▁181	-10243
▁2.5	-10244
▁250	-10245
▁ATM	-10246
▁Alc	-10247
▁Bor	-10248
▁Fle	-10249
▁Gil	-10250
▁Hou	-10251
▁Ire	-10252
▁Moh	-10253
▁Ram	-10254
▁Rog	-10255
▁Sav	-10256
▁Sel	-10257
▁Sus	-10258
▁Tai	-10259
▁Way	-10260
▁ber	-10261
▁bug	-10262
▁cow	-10263
▁cup	-10264
▁ger	-10265
-2009	-10266
amine	-10267
amins	-10268
aping	-10269
burgh	-10270
marks	-10271
opard	-10272
opher	-10273
owers	-10274
power	-10275
rians	-10276
ropri	-10277
▁Adam	-10278
▁Cond	-10279
▁Deut	-10280
▁Imag	-10281
▁Mist	-10282
▁Nine	-10283
▁Oper	-10284
▁PSoC	-10285
▁Prob	-10286
▁Quin	-10287
▁Rabb	-10288
▁SOHO	-10289
▁Sher	-10290
▁Upon	-10291
▁Wars	-10292
▁biof	-10293
▁busy	-10294
▁clay	-10295
▁coat	-10296
▁coin	-10297
▁cosm	-10298
▁cous	-10299
▁gast	-10300
▁gift	-10301
▁gran	-10302
▁guns	-10303
▁hurt	-10304
▁info	-10305
▁nerv	-10306
▁oste	-10307
▁rend	-10308
▁scal	-10309
▁subt	-10310
▁swit	-10311
▁tact	-10312
▁tied	-10313
ewater	-10314
gotten	-10315
hester	-10316
itored	-10317
lights	-10318
namese	-10319
uminum	-10320
▁2004.	-10321
▁Brook	-10322
▁Cobra	-10323
▁Princ	-10324
▁Santa	-10325
▁coinc	-10326
▁cryst	-10327
▁decor	-10328
▁digit	-10329
▁doors	-10330
▁enlar	-10331
▁feels	-10332
▁flour	-10333
▁grows	-10334
▁milit	-10335
▁moral	-10336
▁oblig	-10337
▁optim	-10338
▁overs	-10339
▁perme	-10340
▁radar	-10341
▁repet	-10342
▁saint	-10343
▁scope	-10344
▁shark	-10345
▁sizes	-10346
▁surge	-10347
▁tubes	-10348
▁twent	-10349
attered	-10350
ressing	-10351
riction	-10352
section	-10353
▁Comput	-10354
▁Corpus	-10355
▁Ground	-10356
▁Juréia	-10357
▁Origin	-10358
▁Samuel	-10359
▁UNCLOS	-10360
▁absorb	-10361
▁assemb	-10362
▁attach	-10363
▁breaks	-10364
▁burial	-10365
▁cattle	-10366
▁crimes	-10367
▁deeply	-10368
▁denied	-10369
▁differ	-10370
▁headed	-10371
▁insult	-10372
▁libert	-10373
▁lights	-10374
▁myself	-10375
▁myster	-10376
▁revers	-10377
▁summar	-10378
▁trucks	-10379
▁tunnel	-10380
lections	-10381
ventions	-10382
▁100,000	-10383
▁Angeles	-10384
▁Hungary	-10385
▁Ireland	-10386
▁Justice	-10387
▁Philipp	-10388
▁Provide	-10389
▁Usually	-10390
▁cameras	-10391
▁consent	-10392
▁cutting	-10393
▁disturb	-10394
▁enabled	-10395
▁flowing	-10396
▁forever	-10397
▁logging	-10398
▁neutral	-10399
▁promise	-10400
▁sailors	-10401
▁scholar	-10402
▁servers	-10403
▁solving	-10404
▁speaker	-10405
▁stating	-10406
▁trading	-10407
opithecus	-10408
▁Appleton	-10409
▁Business	-10410
▁Diabetes	-10411
▁Genetics	-10412
▁Interior	-10413
▁Protocol	-10414
▁adjusted	-10415
▁brackish	-10416
▁collapse	-10417
▁confront	-10418
▁diameter	-10419
▁equipped	-10420
▁exported	-10421
▁focusing	-10422
▁integral	-10423
▁momentum	-10424
▁murdered	-10425
▁overview	-10426
▁portions	-10427
▁portrait	-10428
▁rhetoric	-10429
▁schedule	-10430
▁smallest	-10431
▁tourists	-10432
▁tropical	-10433
▁weakness	-10434
▁Architect	-10435
▁Currently	-10436
▁Pediatric	-10437
▁Standards	-10438
▁acknowled	-10439
▁automator	-10440
▁basically	-10441
▁displayed	-10442
▁encounter	-10443
▁estuarius	-10444
▁lifestyle	-10445
▁monitored	-10446
▁mortality	-10447
▁narrative	-10448
▁observers	-10449
▁platforms	-10450
▁preparing	-10451
▁primitive	-10452
▁proposals	-10453
▁providers	-10454
▁provision	-10455
▁scheduled	-10456
▁suspended	-10457
▁telephone	-10458
▁variables	-10459
▁varieties	-10460
▁workplace	-10461
▁Federation	-10462
▁Healthwise	-10463
▁Initiative	-10464
▁Monitoring	-10465
▁capitalist	-10466
▁continuing	-10467
▁convenient	-10468
▁indicating	-10469
▁influences	-10470
▁perfection	-10471
▁surprising	-10472
▁distinction	-10473
▁exclusively	-10474
▁groundwater	-10475
▁involvement	-10476
▁progressive	-10477
▁replacement	-10478
▁threatening	-10479
▁concentrated	-10480
▁confidential	-10481
▁continuously	-10482
▁contributing	-10483
▁presidential	-10484
▁unconformity	-10485
▁unemployment	-10486
▁complications	-10487
31	-10488
3;	-10489
4-	-10490
BI	-10491
HC	-10492
LO	-10493
MM	-10494
Sp	-10495
da	-10496
hn	-10497
pm	-10498
zo	-10499
ée	-10500
---	-10501
-06	-10502
AND	-10503
Jew	-10504
Met	-10505
One	-10506
alo	-10507
ena	-10508
iri	-10509
lad	-10510
mia	-10511
non	-10512
rix	-10513
van	-10514
via	-10515
vit	-10516
▁1)	-10517
▁3-	-10518
▁AL	-10519
▁EN	-10520
▁Eh	-10521
▁IR	-10522
▁RA	-10523
▁ff	-10524
-800	-10525
also	-10526
angs	-10527
bage	-10528
comp	-10529
inda	-10530
rand	-10531
reek	-10532
requ	-10533
ryan	-10534
sper	-10535
▁(3)	-10536
▁18.	-10537
▁24,	-10538
▁3:1	-10539
▁Alb	-10540
▁Cru	-10541
▁Die	-10542
▁Fat	-10543
▁Flu	-10544
▁Hey	-10545
▁ISS	-10546
▁Ibn	-10547
▁Ide	-10548
▁Jim	-10549
▁Log	-10550
▁Map	-10551
▁Mau	-10552
▁Nep	-10553
▁Pip	-10554
▁Ran	-10555
▁Tro	-10556
▁ery	-10557
▁scr	-10558
▁sel	-10559
▁spo	-10560
abama	-10561
acent	-10562
alism	-10563
angle	-10564
antal	-10565
aucas	-10566
aylor	-10567
ellar	-10568
inner	-10569
izers	-10570
monia	-10571
omous	-10572
rayed	-10573
uliar	-10574
ultan	-10575
urora	-10576
world	-10577
▁Anti	-10578
▁Deep	-10579
▁Hend	-10580
▁Iowa	-10581
▁Laws	-10582
▁Main	-10583
▁Peru	-10584
▁Poly	-10585
▁Rand	-10586
▁Shar	-10587
▁Talk	-10588
▁User	-10589
▁apes	-10590
▁bask	-10591
▁brid	-10592
▁clar	-10593
▁cook	-10594
▁cuts	-10595
▁dign	-10596
▁golf	-10597
▁grab	-10598
▁item	-10599
▁lean	-10600
▁noun	-10601
▁pale	-10602
▁resc	-10603
▁surg	-10604
▁warn	-10605
abling	-10606
alties	-10607
iously	-10608
lishes	-10609
rifice	-10610
semble	-10611
urable	-10612
ynasty	-10613
▁Birth	-10614
▁Chall	-10615
▁Files	-10616
▁Galen	-10617
▁Hawai	-10618
▁Image	-10619
▁Model	-10620
▁Often	-10621
▁Photo	-10622
▁Ptole	-10623
▁Simon	-10624
▁alleg	-10625
▁broke	-10626
▁climb	-10627
▁crack	-10628
▁dates	-10629
▁dense	-10630
▁gains	-10631
▁hepat	-10632
▁hered	-10633
▁hills	-10634
▁irrit	-10635
▁loose	-10636
▁marry	-10637
▁memor	-10638
▁meter	-10639
▁plasm	-10640
▁ports	-10641
▁pries	-10642
▁procl	-10643
▁rover	-10644
▁sword	-10645
▁warri	-10646
▁wells	-10647
ertiary	-10648
ocolate	-10649
portant	-10650
▁Alaska	-10651
▁Consul	-10652
▁Greeks	-10653
▁Harold	-10654
▁Mendel	-10655
▁Palace	-10656
▁Philip	-10657
▁Recent	-10658
▁Thanks	-10659
▁UNESCO	-10660
▁advert	-10661
▁anomal	-10662
▁baking	-10663
▁charts	-10664
▁deadly	-10665
▁decent	-10666
▁desert	-10667
▁estate	-10668
▁feared	-10669
▁impart	-10670
▁intact	-10671
▁intens	-10672
▁orchid	-10673
▁powder	-10674
▁stocks	-10675
▁stones	-10676
▁subsid	-10677
▁turkey	-10678
▁varied	-10679
▁warmer	-10680
▁weaken	-10681
▁weapon	-10682
▁wheels	-10683
▁wisdom	-10684
▁yields	-10685
activity	-10686
etically	-10687
friendly	-10688
igration	-10689
ountered	-10690
▁Alabama	-10691
▁Article	-10692
▁Chromos	-10693
▁Conserv	-10694
▁Houston	-10695
▁Picasso	-10696
▁Session	-10697
▁acquire	-10698
▁awarded	-10699
▁borders	-10700
▁colored	-10701
▁compuls	-10702
▁customs	-10703
▁damages	-10704
▁enjoyed	-10705
▁nervous	-10706
▁observe	-10707
▁outflow	-10708
▁sulfate	-10709
▁warrant	-10710
▁washing	-10711
dependent	-10712
▁Austrian	-10713
▁Building	-10714
▁Caroline	-10715
▁Interest	-10716
▁Pressure	-10717
▁Recently	-10718
▁Software	-10719
▁Victoria	-10720
▁accessed	-10721
▁acidosis	-10722
▁admitted	-10723
▁barriers	-10724
▁duration	-10725
▁flooding	-10726
▁humanity	-10727
▁organism	-10728
▁peculiar	-10729
▁renowned	-10730
▁restored	-10731
▁severity	-10732
▁situated	-10733
▁spending	-10734
▁variants	-10735
▁writings	-10736
▁Aristotle	-10737
▁Materials	-10738
▁Mountains	-10739
▁abdominal	-10740
▁accompany	-10741
▁addresses	-10742
▁assistant	-10743
▁attracted	-10744
▁behaviour	-10745
▁biologist	-10746
▁computing	-10747
▁conflicts	-10748
▁confusion	-10749
▁convinced	-10750
▁detectors	-10751
▁economies	-10752
▁examining	-10753
▁executive	-10754
▁extension	-10755
▁harvested	-10756
▁historian	-10757
▁identical	-10758
▁ownership	-10759
▁paintings	-10760
▁pediatric	-10761
▁pesticide	-10762
▁possessed	-10763
▁promoting	-10764
▁resistant	-10765
▁sponsored	-10766
▁synthetic	-10767
▁Institutes	-10768
▁Parliament	-10769
▁Vietnamese	-10770
▁capitalism	-10771
▁collecting	-10772
▁comparable	-10773
▁coordinate	-10774
▁eliminated	-10775
▁encourages	-10776
▁fertilizer	-10777
▁historians	-10778
▁meditation	-10779
▁persistent	-10780
▁possession	-10781
▁regulatory	-10782
▁repeatedly	-10783
▁unemployed	-10784
▁Traditional	-10785
▁astronomers	-10786
▁encountered	-10787
▁illustrated	-10788
▁outstanding	-10789
▁Biodiversity	-10790
▁chemotherapy	-10791
▁compensation	-10792
▁improvements	-10793
▁consciousness	-10794
▁modifications	-10795
▁organisations	-10796
▁sophisticated	-10797
▁administrative	-10798
▁investigations	-10799
▁simultaneously	-10800
))	-10801
28	-10802
36	-10803
5;	-10804
AA	-10805
DI	-10806
FS	-10807
MB	-10808
SW	-10809
ji	-10810
"),	-10811
-14	-10812
400	-10813
All	-10814
ERS	-10815
Net	-10816
Our	-10817
REE	-10818
bec	-10819
chi	-10820
eme	-10821
eps	-10822
inh	-10823
oen	-10824
onc	-10825
ori	-10826
ref	-10827
sur	-10828
yan	-10829
ynt	-10830
▁49	-10831
▁CN	-10832
▁IP	-10833
▁Na	-10834
▁PD	-10835
▁pt	-10836
▁ts	-10837
▁tu	-10838
acle	-10839
anth	-10840
data	-10841
eath	-10842
educ	-10843
emat	-10844
home	-10845
ibri	-10846
iral	-10847
itus	-10848
lymp	-10849
page	-10850
pest	-10851
quir	-10852
raph	-10853
site	-10854
ucky	-10855
▁14.	-10856
▁155	-10857
▁23,	-10858
▁25,	-10859
▁Ath	-10860
▁CDC	-10861
▁Cam	-10862
▁Cut	-10863
▁Ele	-10864
▁Far	-10865
▁Hyp	-10866
▁Ice	-10867
▁JVM	-10868
▁Kol	-10869
▁Kos	-10870
▁Mit	-10871
▁Naz	-10872
▁Nob	-10873
▁Ori	-10874
▁PRO	-10875
▁Pur	-10876
▁Sem	-10877
▁Tal	-10878
▁Thy	-10879
▁bip	-10880
▁cot	-10881
▁eds	-10882
▁jar	-10883
▁mul	-10884
▁pap	-10885
▁tab	-10886
▁upt	-10887
▁vel	-10888
aceae	-10889
added	-10890
antin	-10891
being	-10892
found	-10893
gence	-10894
iates	-10895
otion	-10896
ouses	-10897
pathy	-10898
rared	-10899
rowth	-10900
udson	-10901
verbs	-10902
▁(196	-10903
▁(198	-10904
▁Blog	-10905
▁Bond	-10906
▁Cert	-10907
▁Cook	-10908
▁Exec	-10909
▁Gram	-10910
▁Haga	-10911
▁Hope	-10912
▁Juda	-10913
▁Meas	-10914
▁Ohio	-10915
▁Prim	-10916
▁Prom	-10917
▁Site	-10918
▁Stan	-10919
▁Whit	-10920
▁aids	-10921
▁calm	-10922
▁desk	-10923
▁dism	-10924
▁exch	-10925
▁flee	-10926
▁fool	-10927
▁glob	-10928
▁lets	-10929
▁pair	-10930
▁pink	-10931
▁plug	-10932
▁seaw	-10933
▁trem	-10934
▁turf	-10935
▁wing	-10936
Jewish	-10937
arther	-10938
ennium	-10939
follow	-10940
ifiers	-10941
ifting	-10942
ogenic	-10943
rophic	-10944
▁2002.	-10945
▁Behav	-10946
▁Carib	-10947
▁Gates	-10948
▁Honor	-10949
▁Olymp	-10950
▁Peace	-10951
▁Prior	-10952
▁Short	-10953
▁alarm	-10954
▁arbit	-10955
▁armed	-10956
▁bases	-10957
▁breed	-10958
▁chron	-10959
▁cliff	-10960
▁cyber	-10961
▁deple	-10962
▁drain	-10963
▁enfor	-10964
▁fring	-10965
▁hatch	-10966
▁hoped	-10967
▁movie	-10968
▁onset	-10969
▁owned	-10970
▁probe	-10971
▁prone	-10972
▁sanct	-10973
▁seign	-10974
▁shame	-10975
▁shoes	-10976
▁souls	-10977
▁stagn	-10978
▁swall	-10979
gestion	-10980
illance	-10981
otation	-10982
product	-10983
raction	-10984
▁Andrew	-10985
▁Archae	-10986
▁Aurora	-10987
▁Battin	-10988
▁Branch	-10989
▁Caucas	-10990
▁Father	-10991
▁Illust	-10992
▁Kidney	-10993
▁Living	-10994
▁Object	-10995
▁Proper	-10996
▁Record	-10997
▁Script	-10998
▁Strate	-10999
▁Struct	-11000
▁atomic	-11001
▁camera	-11002
▁catast	-11003
▁census	-11004
▁dental	-11005
▁finish	-11006
▁guitar	-11007
▁manual	-11008
▁margin	-11009
▁marrow	-11010
▁modest	-11011
▁propri	-11012
▁recall	-11013
▁satisf	-11014
▁scales	-11015
▁settle	-11016
▁sister	-11017
▁solely	-11018
▁stabil	-11019
▁stront	-11020
▁surviv	-11021
▁throne	-11022
▁underm	-11023
▁versus	-11024
athyroid	-11025
ographer	-11026
▁Bolivia	-11027
▁Concept	-11028
▁Content	-11029
▁Explore	-11030
▁Extract	-11031
▁Granada	-11032
▁Matisse	-11033
▁Prophet	-11034
▁Village	-11035
▁adolesc	-11036
▁angular	-11037
▁bearing	-11038
▁beneath	-11039
▁biomass	-11040
▁clothes	-11041
▁coaches	-11042
▁contest	-11043
▁entries	-11044
▁excited	-11045
▁formula	-11046
▁jurists	-11047
▁landing	-11048
▁mapping	-11049
▁neglect	-11050
▁powered	-11051
▁priests	-11052
▁reconst	-11053
▁retired	-11054
▁royalty	-11055
▁spirits	-11056
▁transit	-11057
ependence	-11058
ropolitan	-11059
▁Activity	-11060
▁Buddhist	-11061
▁Governor	-11062
▁Hamilton	-11063
▁abstract	-11064
▁audience	-11065
▁avoiding	-11066
▁belonged	-11067
▁colonies	-11068
▁consolid	-11069
▁contrary	-11070
▁defining	-11071
▁demanded	-11072
▁disagree	-11073
▁drilling	-11074
▁efficacy	-11075
▁engaging	-11076
▁entitled	-11077
▁ethylene	-11078
▁humidity	-11079
▁informal	-11080
▁invasive	-11081
▁medieval	-11082
▁narrator	-11083
▁nutrient	-11084
▁operator	-11085
▁probable	-11086
▁randomly	-11087
▁readings	-11088
▁redirect	-11089
▁regulate	-11090
▁republic	-11091
▁requests	-11092
▁segments	-11093
▁vitamins	-11094
generation	-11095
▁Slovakian	-11096
▁comparing	-11097
▁counselor	-11098
▁energized	-11099
▁integrity	-11100
▁interrupt	-11101
▁microscop	-11102
▁operators	-11103
▁programme	-11104
▁proximity	-11105
▁relatives	-11106
▁returning	-11107
▁subjected	-11108
▁threshold	-11109
▁twentieth	-11110
▁untrusted	-11111
▁voluntary	-11112
▁Comprehens	-11113
▁Statistics	-11114
▁acceptable	-11115
▁astronauts	-11116
▁dependence	-11117
▁describing	-11118
▁downstream	-11119
▁elementary	-11120
▁exhibition	-11121
▁extinction	-11122
▁freshwater	-11123
▁hurricanes	-11124
▁hypothesis	-11125
▁Understands	-11126
▁certificate	-11127
▁exploration	-11128
▁fascinating	-11129
▁orientation	-11130
▁preparation	-11131
▁wavelengths	-11132
▁incorporated	-11133
▁inscriptions	-11134
▁subsequently	-11135
▁universities	-11136
▁investigating	-11137
:0	-11138
?)	-11139
EA	-11140
OC	-11141
OW	-11142
PL	-11143
Se	-11144
TS	-11145
WS	-11146
cf	-11147
mn	-11148
20,	-11149
8).	-11150
ato	-11151
eti	-11152
obs	-11153
odd	-11154
roh	-11155
uma	-11156
vol	-11157
▁(“	-11158
▁2-	-11159
▁EV	-11160
▁Es	-11161
▁FL	-11162
▁ID	-11163
▁Pa	-11164
▁Pu	-11165
▁Ra	-11166
▁Ur	-11167
▁Yu	-11168
▁gy	-11169
With	-11170
aris	-11171
blem	-11172
disc	-11173
earl	-11174
elta	-11175
even	-11176
hall	-11177
henk	-11178
husi	-11179
idal	-11180
iors	-11181
ogel	-11182
oked	-11183
rake	-11184
rett	-11185
ulus	-11186
xual	-11187
ymph	-11188
▁(12	-11189
▁1.5	-11190
▁110	-11191
▁140	-11192
▁50%	-11193
▁ABS	-11194
▁Arm	-11195
▁Aud	-11196
▁Dou	-11197
▁FLE	-11198
▁Fer	-11199
▁Hol	-11200
▁Joh	-11201
▁LEN	-11202
▁Luc	-11203
▁Mao	-11204
▁Opp	-11205
▁Pay	-11206
▁Rap	-11207
▁Set	-11208
▁Sex	-11209
▁TAL	-11210
▁Tag	-11211
▁Taj	-11212
▁Tel	-11213
▁VTL	-11214
▁dil	-11215
▁fee	-11216
▁sle	-11217
▁unn	-11218
▁unw	-11219
▁wed	-11220
arter	-11221
athan	-11222
atics	-11223
beans	-11224
click	-11225
endit	-11226
fraid	-11227
imore	-11228
inger	-11229
ivate	-11230
ocene	-11231
oglio	-11232
omnia	-11233
owing	-11234
terol	-11235
ulose	-11236
uties	-11237
▁1800	-11238
▁1992	-11239
▁Dick	-11240
▁Docu	-11241
▁Five	-11242
▁Full	-11243
▁Humb	-11244
▁Link	-11245
▁Moor	-11246
▁Norm	-11247
▁Rule	-11248
▁appl	-11249
▁athe	-11250
▁clin	-11251
▁club	-11252
▁cort	-11253
▁frog	-11254
▁hill	-11255
▁hits	-11256
▁hung	-11257
▁inch	-11258
▁leak	-11259
▁lens	-11260
▁outs	-11261
▁pole	-11262
▁puts	-11263
▁puzz	-11264
▁seas	-11265
▁soup	-11266
▁spik	-11267
▁thir	-11268
▁till	-11269
▁vign	-11270
▁wand	-11271
aceous	-11272
driven	-11273
ervoir	-11274
handed	-11275
points	-11276
retion	-11277
scheme	-11278
uclear	-11279
violet	-11280
▁2,000	-11281
▁2003.	-11282
▁2006,	-11283
▁Adams	-11284
▁Asher	-11285
▁Cross	-11286
▁Delta	-11287
▁Dream	-11288
▁Haydn	-11289
▁Jacks	-11290
▁Karuk	-11291
▁Super	-11292
▁Video	-11293
▁Vogel	-11294
▁Works	-11295
▁admin	-11296
▁basin	-11297
▁crews	-11298
▁dolph	-11299
▁dying	-11300
▁fatig	-11301
▁fault	-11302
▁fears	-11303
▁flesh	-11304
▁frust	-11305
▁gland	-11306
▁lunar	-11307
▁minds	-11308
▁modes	-11309
▁opium	-11310
▁oxide	-11311
▁pagan	-11312
▁piano	-11313
▁shale	-11314
▁shops	-11315
▁spark	-11316
▁teams	-11317
▁tough	-11318
▁yeast	-11319
herence	-11320
ipality	-11321
isphere	-11322
issions	-11323
obility	-11324
thritis	-11325
uilding	-11326
▁(2004)	-11327
▁Carbon	-11328
▁Hispan	-11329
▁Hubble	-11330
▁Hudson	-11331
▁Invest	-11332
▁Monday	-11333
▁Schenk	-11334
▁Skills	-11335
▁Taiwan	-11336
▁Weekly	-11337
▁afraid	-11338
▁arrive	-11339
▁assass	-11340
▁assent	-11341
▁autism	-11342
▁commem	-11343
▁contag	-11344
▁crafts	-11345
▁dating	-11346
▁declar	-11347
▁dermat	-11348
▁frozen	-11349
▁gallon	-11350
▁glands	-11351
▁guides	-11352
▁incomp	-11353
▁lasted	-11354
▁metast	-11355
▁partly	-11356
▁poorly	-11357
▁profit	-11358
▁propag	-11359
▁saints	-11360
▁scores	-11361
▁seized	-11362
▁speaks	-11363
▁tended	-11364
▁tongue	-11365
function	-11366
pectives	-11367
perature	-11368
▁Economy	-11369
▁Indiana	-11370
▁Landsat	-11371
▁Mistake	-11372
▁Ptolemy	-11373
▁Reserve	-11374
▁Solomon	-11375
▁Zionist	-11376
▁assault	-11377
▁breathe	-11378
▁classic	-11379
▁critics	-11380
▁dangers	-11381
▁erosion	-11382
▁essence	-11383
▁extends	-11384
▁farming	-11385
▁fouling	-11386
▁fulfill	-11387
▁grasses	-11388
▁hydroly	-11389
▁invited	-11390
▁mystery	-11391
▁nearest	-11392
▁outdoor	-11393
▁proport	-11394
▁protest	-11395
▁robotic	-11396
▁savings	-11397
▁sectors	-11398
▁silence	-11399
▁suppose	-11400
▁surveys	-11401
▁tourist	-11402
▁trapped	-11403
imensions	-11404
olesterol	-11405
▁Anderson	-11406
▁Appendix	-11407
▁Graduate	-11408
▁Juvenile	-11409
▁Memorial	-11410
▁Remember	-11411
▁Teaching	-11412
▁aluminum	-11413
▁ancestor	-11414
▁assessed	-11415
▁attacked	-11416
▁balanced	-11417
▁creature	-11418
▁disposal	-11419
▁eventual	-11420
▁explored	-11421
▁featured	-11422
▁friction	-11423
▁headache	-11424
▁memorial	-11425
▁memories	-11426
▁missions	-11427
▁rejected	-11428
▁uncommon	-11429
▁whenever	-11430
▁Agreement	-11431
▁Baltimore	-11432
▁Caribbean	-11433
▁Lazaretto	-11434
▁Nutrition	-11435
▁Transport	-11436
▁Wikipedia	-11437
▁abilities	-11438
▁activists	-11439
▁afterlife	-11440
▁appearing	-11441
▁confident	-11442
▁conquered	-11443
▁convicted	-11444
▁educators	-11445
▁entertain	-11446
▁gathering	-11447
▁guarantee	-11448
▁hurricane	-11449
▁initiated	-11450
▁metabolic	-11451
▁observing	-11452
▁partially	-11453
▁perfectly	-11454
▁pipelines	-11455
▁producers	-11456
▁recycling	-11457
▁sacrifice	-11458
▁shortages	-11459
▁societies	-11460
▁Correction	-11461
▁Indigenous	-11462
▁Industrial	-11463
▁absolutely	-11464
▁candidates	-11465
▁completion	-11466
▁determines	-11467
▁endangered	-11468
▁engagement	-11469
▁evaluating	-11470
▁explicitly	-11471
▁geographic	-11472
▁indication	-11473
▁linguistic	-11474
▁membership	-11475
▁parameters	-11476
▁prescribed	-11477
▁prohibited	-11478
▁satellites	-11479
▁struggling	-11480
▁Educational	-11481
▁citizenship	-11482
▁correlation	-11483
▁definitions	-11484
▁dehydration	-11485
▁genetically	-11486
▁politically	-11487
▁politicians	-11488
▁respiratory	-11489
▁interference	-11490
▁multilateral	-11491
▁participated	-11492
▁determination	-11493
▁developmental	-11494
▁functionality	-11495
▁interventions	-11496
▁technological	-11497
";	-11498
(1	-11499
2-	-11500
34	-11501
4;	-11502
DD	-11503
IX	-11504
No	-11505
TA	-11506
],	-11507
gi	-11508
yo	-11509
-17	-11510
-30	-11511
.),	-11512
9).	-11513
III	-11514
ISE	-11515
Ind	-11516
ati	-11517
bee	-11518
isy	-11519
mod	-11520
new	-11521
oga	-11522
ois	-11523
vas	-11524
▁07	-11525
▁54	-11526
▁77	-11527
▁AG	-11528
▁HI	-11529
▁Kl	-11530
▁Mt	-11531
▁Wa	-11532
Cont	-11533
anim	-11534
appy	-11535
atan	-11536
atre	-11537
aurs	-11538
curd	-11539
eded	-11540
ener	-11541
eric	-11542
erts	-11543
fire	-11544
five	-11545
fold	-11546
fund	-11547
gian	-11548
iami	-11549
illo	-11550
imen	-11551
iser	-11552
kind	-11553
link	-11554
list	-11555
nial	-11556
orov	-11557
ouri	-11558
oxid	-11559
pres	-11560
rics	-11561
rive	-11562
rose	-11563
thew	-11564
tiva	-11565
when	-11566
▁12.	-11567
▁160	-11568
▁26,	-11569
▁4:1	-11570
▁Aim	-11571
▁Ale	-11572
▁Aqu	-11573
▁Bah	-11574
▁Bon	-11575
▁CIA	-11576
▁Cas	-11577
▁GIS	-11578
▁HUD	-11579
▁Lau	-11580
▁Lut	-11581
▁NOS	-11582
▁Nit	-11583
▁PIN	-11584
▁Pit	-11585
▁Six	-11586
▁Try	-11587
▁Zoo	-11588
▁ash	-11589
▁bes	-11590
▁eco	-11591
▁jaw	-11592
▁jew	-11593
▁meg	-11594
▁mir	-11595
▁oct	-11596
▁pin	-11597
▁por	-11598
▁que	-11599
▁tox	-11600
-2010	-11601
Harry	-11602
aceut	-11603
ctors	-11604
ectin	-11605
elson	-11606
eries	-11607
ginal	-11608
group	-11609
ician	-11610
ietal	-11611
otype	-11612
ourse	-11613
quare	-11614
rific	-11615
unker	-11616
usive	-11617
▁1991	-11618
▁Assy	-11619
▁Azer	-11620
▁Bact	-11621
▁Bern	-11622
▁Carl	-11623
▁Duke	-11624
▁Gust	-11625
▁Jury	-11626
▁Kirk	-11627
▁Lady	-11628
▁Verm	-11629
▁adul	-11630
▁apps	-11631
▁axis	-11632
▁bang	-11633
▁boom	-11634
▁brad	-11635
▁cerv	-11636
▁chip	-11637
▁cope	-11638
▁encl	-11639
▁exce	-11640
▁fant	-11641
▁gear	-11642
▁germ	-11643
▁gray	-11644
▁grey	-11645
▁grie	-11646
▁hide	-11647
▁meal	-11648
▁peas	-11649
▁pill	-11650
▁prol	-11651
▁wast	-11652
▁worn	-11653
ibrium	-11654
inance	-11655
iquity	-11656
object	-11657
ophila	-11658
oretto	-11659
othing	-11660
ratory	-11661
roitin	-11662
▁Allow	-11663
▁Broad	-11664
▁Charm	-11665
▁FLEGT	-11666
▁Fried	-11667
▁Jones	-11668
▁Knorr	-11669
▁Maria	-11670
▁Maybe	-11671
▁Miami	-11672
▁Nolan	-11673
▁Print	-11674
▁Third	-11675
▁Toxic	-11676
▁Would	-11677
▁bench	-11678
▁brass	-11679
▁brush	-11680
▁champ	-11681
▁clays	-11682
▁clips	-11683
▁cured	-11684
▁exile	-11685
▁forum	-11686
▁glory	-11687
▁grace	-11688
▁grasp	-11689
▁guest	-11690
▁hired	-11691
▁opens	-11692
▁overt	-11693
▁penet	-11694
▁pulse	-11695
▁reass	-11696
▁recre	-11697
▁recur	-11698
▁saved	-11699
▁shelf	-11700
▁shock	-11701
▁socio	-11702
▁squee	-11703
▁stiff	-11704
▁tanks	-11705
▁terra	-11706
▁tyros	-11707
▁unpre	-11708
▁veloc	-11709
▁voted	-11710
amation	-11711
antalou	-11712
istence	-11713
onymous	-11714
opicrin	-11715
pectral	-11716
pirical	-11717
tically	-11718
▁1995).	-11719
▁Arabia	-11720
▁Castle	-11721
▁Causes	-11722
▁Confed	-11723
▁Editor	-11724
▁Freder	-11725
▁Handel	-11726
▁Harbor	-11727
▁Hughes	-11728
▁Winter	-11729
▁argued	-11730
▁attain	-11731
▁buried	-11732
▁chains	-11733
▁condem	-11734
▁curves	-11735
▁divine	-11736
▁fallen	-11737
▁fluids	-11738
▁folder	-11739
▁fortun	-11740
▁freely	-11741
▁heated	-11742
▁litter	-11743
▁module	-11744
▁palace	-11745
▁shares	-11746
▁shells	-11747
▁strain	-11748
European	-11749
ensitive	-11750
expected	-11751
ificates	-11752
infected	-11753
national	-11754
original	-11755
rability	-11756
▁Alexand	-11757
▁Effects	-11758
▁Judaism	-11759
▁Mercury	-11760
▁Prairie	-11761
▁Weather	-11762
▁ammonia	-11763
▁analyze	-11764
▁appeals	-11765
▁battles	-11766
▁catalog	-11767
▁chamber	-11768
▁channel	-11769
▁chicken	-11770
▁circuit	-11771
▁coating	-11772
▁corrupt	-11773
▁enthusi	-11774
▁faculty	-11775
▁fatigue	-11776
▁gallery	-11777
▁genomic	-11778
▁housing	-11779
▁individ	-11780
▁intimid	-11781
▁kidneys	-11782
▁latency	-11783
▁mammals	-11784
▁mercury	-11785
▁methane	-11786
▁packing	-11787
▁penalty	-11788
▁percept	-11789
▁pigment	-11790
▁prolong	-11791
▁renewed	-11792
▁resting	-11793
▁selling	-11794
▁strands	-11795
▁teaches	-11796
▁tragedy	-11797
▁trusted	-11798
▁viewing	-11799
▁viruses	-11800
▁weights	-11801
antinople	-11802
unication	-11803
▁Complete	-11804
▁Evidence	-11805
▁Humanism	-11806
▁Missouri	-11807
▁Previous	-11808
▁athletic	-11809
▁biblical	-11810
▁bleeding	-11811
▁clicking	-11812
▁commands	-11813
▁currents	-11814
▁elevated	-11815
▁envelope	-11816
▁equality	-11817
▁inserted	-11818
▁insights	-11819
▁limiting	-11820
▁peripher	-11821
▁producer	-11822
▁prospect	-11823
▁recorder	-11824
▁refugees	-11825
▁removing	-11826
▁seasonal	-11827
▁strictly	-11828
▁surveyed	-11829
▁vitiligo	-11830
accharides	-11831
▁Equipment	-11832
▁attitudes	-11833
▁certified	-11834
▁criticism	-11835
▁designing	-11836
▁estuarine	-11837
▁extending	-11838
▁forgotten	-11839
▁illnesses	-11840
▁listening	-11841
▁microbial	-11842
▁necessity	-11843
▁planetary	-11844
▁precision	-11845
▁projected	-11846
▁searching	-11847
▁selecting	-11848
▁shoulders	-11849
▁specimens	-11850
▁suspected	-11851
▁trademark	-11852
▁Assessment	-11853
▁Guidelines	-11854
▁appreciate	-11855
▁complement	-11856
▁compressor	-11857
▁discussing	-11858
▁ecosystems	-11859
▁households	-11860
▁impression	-11861
▁meaningful	-11862
▁officially	-11863
▁recognised	-11864
▁recommends	-11865
▁systematic	-11866
▁undertaken	-11867
▁Application	-11868
▁Observatory	-11869
▁Performance	-11870
▁achievement	-11871
▁cholesterol	-11872
▁controlling	-11873
▁efficiently	-11874
▁interpreted	-11875
▁operational	-11876
▁preliminary	-11877
▁specialized	-11878
▁statistical	-11879
▁individually	-11880
▁insufficient	-11881
▁nevertheless	-11882
▁productivity	-11883
▁independently	-11884
)|	-11885
44	-11886
63	-11887
68	-11888
91	-11889
97	-11890
Af	-11891
HP	-11892
LS	-11893
NU	-11894
On	-11895
VI	-11896
ci	-11897
sr	-11898
–2	-11899
’,	-11900
800	-11901
BSD	-11902
Def	-11903
ORD	-11904
RIZ	-11905
TER	-11906
acs	-11907
aro	-11908
azz	-11909
cut	-11910
del	-11911
don	-11912
due	-11913
han	-11914
oca	-11915
pin	-11916
rup	-11917
uri	-11918
var	-11919
who	-11920
you	-11921
▁''	-11922
▁..	-11923
▁03	-11924
▁3)	-11925
▁53	-11926
▁Ak	-11927
▁Ce	-11928
▁PG	-11929
▁SA	-11930
Cons	-11931
MENT	-11932
ahat	-11933
alia	-11934
away	-11935
bala	-11936
ello	-11937
enza	-11938
erem	-11939
erto	-11940
fish	-11941
hang	-11942
hops	-11943
idic	-11944
iley	-11945
ioch	-11946
olds	-11947
orms	-11948
ouch	-11949
oyle	-11950
pers	-11951
roud	-11952
tein	-11953
tles	-11954
uing	-11955
wave	-11956
ylon	-11957
▁28,	-11958
▁2:1	-11959
▁Cox	-11960
▁Ell	-11961
▁Gir	-11962
▁Hal	-11963
▁Haz	-11964
▁Ira	-11965
▁KDE	-11966
▁Lev	-11967
▁Mas	-11968
▁McK	-11969
▁Qur	-11970
▁Sag	-11971
▁Sym	-11972
▁UAE	-11973
▁Win	-11974
▁gut	-11975
▁mes	-11976
▁muc	-11977
▁mud	-11978
▁nom	-11979
▁odd	-11980
▁ric	-11981
▁ske	-11982
anted	-11983
avian	-11984
chest	-11985
eared	-11986
eland	-11987
ghrib	-11988
ilies	-11989
ilson	-11990
inder	-11991
itzer	-11992
orike	-11993
third	-11994
uated	-11995
▁(193	-11996
▁AMPs	-11997
▁Anim	-11998
▁Best	-11999
▁Bull	-12000
▁Dros	-12001
▁Eric	-12002
▁Hein	-12003
▁Host	-12004
▁Kenn	-12005
▁Nazi	-12006
▁Pain	-12007
▁Path	-12008
▁Serb	-12009
▁Stef	-12010
▁Tart	-12011
▁Tips	-12012
▁Town	-12013
▁Tree	-12014
▁Tues	-12015
▁Vien	-12016
▁Wang	-12017
▁anat	-12018
▁asks	-12019
▁bass	-12020
▁bioc	-12021
▁caps	-12022
▁chur	-12023
▁cran	-12024
▁crus	-12025
▁curt	-12026
▁dens	-12027
▁fees	-12028
▁kiss	-12029
▁nick	-12030
▁pupp	-12031
▁quiz	-12032
▁ride	-12033
▁spur	-12034
▁toll	-12035
▁torn	-12036
▁toys	-12037
▁tran	-12038
▁turb	-12039
▁unsu	-12040
▁wise	-12041
▁yard	-12042
agogue	-12043
agraph	-12044
anners	-12045
astogi	-12046
carbon	-12047
giving	-12048
health	-12049
iators	-12050
oplasm	-12051
plants	-12052
tering	-12053
urally	-12054
▁2005,	-12055
▁3,000	-12056
▁Arabs	-12057
▁Falls	-12058
▁Flore	-12059
▁Games	-12060
▁Index	-12061
▁Issue	-12062
▁Paper	-12063
▁Relig	-12064
▁Store	-12065
▁TALEN	-12066
▁Total	-12067
▁USEPA	-12068
▁acted	-12069
▁alpha	-12070
▁bites	-12071
▁codes	-12072
▁crowd	-12073
▁crypt	-12074
▁disin	-12075
▁divor	-12076
▁dozen	-12077
▁dried	-12078
▁emanc	-12079
▁frogs	-12080
▁grave	-12081
▁ignor	-12082
▁invis	-12083
▁knife	-12084
▁macro	-12085
▁nerve	-12086
▁newer	-12087
▁pumps	-12088
▁quail	-12089
▁spite	-12090
▁stops	-12091
▁subur	-12092
▁wages	-12093
assador	-12094
atching	-12095
aternal	-12096
biology	-12097
edience	-12098
gencies	-12099
osexual	-12100
regular	-12101
▁Apache	-12102
▁Berlin	-12103
▁Corpor	-12104
▁Determ	-12105
▁Golden	-12106
▁Making	-12107
▁Malays	-12108
▁Mental	-12109
▁Nelson	-12110
▁Nevsky	-12111
▁Planet	-12112
▁Taking	-12113
▁Torral	-12114
▁Visual	-12115
▁Wilson	-12116
▁deemed	-12117
▁disput	-12118
▁enters	-12119
▁entity	-12120
▁epidem	-12121
▁facial	-12122
▁flying	-12123
▁fulvic	-12124
▁gentle	-12125
▁guided	-12126
▁iconic	-12127
▁inquir	-12128
▁mammal	-12129
▁martyr	-12130
▁mirror	-12131
▁paints	-12132
▁philos	-12133
▁phones	-12134
▁poster	-12135
▁presum	-12136
▁pursue	-12137
▁retain	-12138
▁robots	-12139
▁scarce	-12140
▁sheets	-12141
▁steady	-12142
▁summit	-12143
▁transf	-12144
▁treats	-12145
▁united	-12146
▁vector	-12147
▁viable	-12148
▁virtue	-12149
▁visits	-12150
National	-12151
________	-12152
ilingual	-12153
ivestock	-12154
olutions	-12155
positive	-12156
ropriate	-12157
▁Cornell	-12158
▁Foreign	-12159
▁Freedom	-12160
▁Heywood	-12161
▁Maghrib	-12162
▁Mexican	-12163
▁Oakland	-12164
▁Overall	-12165
▁Results	-12166
▁Systems	-12167
▁Todorov	-12168
▁Tourism	-12169
▁Workers	-12170
▁agnates	-12171
▁amazing	-12172
▁avoided	-12173
▁engines	-12174
▁feather	-12175
▁fitness	-12176
▁founder	-12177
▁gaining	-12178
▁grazing	-12179
▁kitchen	-12180
▁legally	-12181
▁moments	-12182
▁partial	-12183
▁passive	-12184
▁pasteur	-12185
▁plasmid	-12186
▁readily	-12187
▁recited	-12188
▁retreat	-12189
▁rhythms	-12190
▁solvent	-12191
▁suicide	-12192
▁supreme	-12193
▁synthes	-12194
▁thereof	-12195
elligence	-12196
hetorical	-12197
ondroitin	-12198
oskeletal	-12199
▁Cambodia	-12200
▁Comoglio	-12201
▁Delaware	-12202
▁Lawrence	-12203
▁Patients	-12204
▁Together	-12205
▁adjacent	-12206
▁adoption	-12207
▁birthday	-12208
▁congress	-12209
▁detained	-12210
▁dynamics	-12211
▁expelled	-12212
▁homework	-12213
▁innocent	-12214
▁landmark	-12215
▁literacy	-12216
▁marginal	-12217
▁ministry	-12218
▁modeling	-12219
▁monopoly	-12220
▁nofollow	-12221
▁organize	-12222
▁passages	-12223
▁pointing	-12224
▁rainfall	-12225
▁supplied	-12226
▁swelling	-12227
▁swimming	-12228
▁triggers	-12229
▁vertical	-12230
▁wetlands	-12231
▁Generally	-12232
▁Testament	-12233
▁abundance	-12234
▁butterfly	-12235
▁calculate	-12236
▁commander	-12237
▁competent	-12238
▁decreases	-12239
▁discusses	-12240
▁dissolved	-12241
▁emphasize	-12242
▁favorable	-12243
▁inclusion	-12244
▁introduce	-12245
▁motivated	-12246
▁northwest	-12247
▁poisoning	-12248
▁receptors	-12249
▁regulated	-12250
▁secretary	-12251
▁signaling	-12252
▁thickness	-12253
▁untreated	-12254
▁Activities	-12255
▁Drosophila	-12256
▁Psychology	-12257
▁afterwards	-12258
▁applicable	-12259
▁compelling	-12260
▁comprising	-12261
▁engineered	-12262
▁exceptions	-12263
▁expedition	-12264
▁impairment	-12265
▁incentives	-12266
▁incredibly	-12267
▁kilometers	-12268
▁mainstream	-12269
▁pronounced	-12270
▁punishment	-12271
▁recordings	-12272
▁reductions	-12273
▁remembered	-12274
▁Reservation	-12275
▁devastating	-12276
▁humiliation	-12277
▁incorporate	-12278
▁intelligent	-12279
▁methodology	-12280
▁negotiation	-12281
▁stimulation	-12282
▁transparent	-12283
▁Independence	-12284
▁calculations	-12285
▁conservative	-12286
▁consistently	-12287
▁constituents	-12288
▁coordination	-12289
▁explanations	-12290
▁illustrating	-12291
▁infringement	-12292
▁investigated	-12293
▁prescription	-12294
▁stakeholders	-12295
▁substantially	-12296
▁traditionally	-12297
▁Communications	-12298
▁Constantinople	-12299
▁cardiovascular	-12300
01	-12301
56	-12302
93	-12303
Dé	-12304
EF	-12305
Im	-12306
Ju	-12307
Le	-12308
di	-12309
jo	-12310
ui	-12311
vn	-12312
’.	-12313
-60	-12314
32.	-12315
4),	-12316
ALL	-12317
BCT	-12318
HCR	-12319
Res	-12320
aza	-12321
bai	-12322
bes	-12323
cat	-12324
cor	-12325
ela	-12326
erk	-12327
hoe	-12328
ikh	-12329
iom	-12330
kal	-12331
len	-12332
mal	-12333
nut	-12334
oda	-12335
osm	-12336
ser	-12337
sex	-12338
top	-12339
▁02	-12340
▁5%	-12341
▁51	-12342
▁57	-12343
▁AB	-12344
▁AV	-12345
▁Cr	-12346
▁DF	-12347
▁HE	-12348
▁VM	-12349
▁dy	-12350
▁mm	-12351
RIZA	-12352
anan	-12353
aren	-12354
assy	-12355
avia	-12356
bell	-12357
case	-12358
cure	-12359
cyth	-12360
erce	-12361
fast	-12362
hill	-12363
iche	-12364
illa	-12365
inst	-12366
ixon	-12367
mans	-12368
note	-12369
prot	-12370
rack	-12371
rene	-12372
sees	-12373
umbu	-12374
unal	-12375
▁130	-12376
▁22.	-12377
▁29,	-12378
▁350	-12379
▁900	-12380
▁BCE	-12381
▁Bac	-12382
▁Bio	-12383
▁Gab	-12384
▁Hig	-12385
▁Kal	-12386
▁Kie	-12387
▁MCI	-12388
▁Mun	-12389
▁Nam	-12390
▁Neh	-12391
▁PME	-12392
▁Sab	-12393
▁Tam	-12394
▁Tar	-12395
▁USB	-12396
▁ate	-12397
▁awa	-12398
▁bom	-12399
▁cha	-12400
▁fan	-12401
▁wax	-12402
April	-12403
agger	-12404
antic	-12405
bings	-12406
blems	-12407
edded	-12408
elles	-12409
erend	-12410
esium	-12411
heres	-12412
insic	-12413
irrel	-12414
mates	-12415
ontan	-12416
opath	-12417
ordon	-12418
ouver	-12419
phase	-12420
raska	-12421
ripts	-12422
sters	-12423
uchea	-12424
ucing	-12425
uffle	-12426
ulent	-12427
unami	-12428
uting	-12429
vents	-12430
▁1900	-12431
▁1940	-12432
▁Bert	-12433
▁Brig	-12434
▁Buff	-12435
▁CALs	-12436
▁Edit	-12437
▁IDEA	-12438
▁Jack	-12439
▁Maui	-12440
▁Mine	-12441
▁Nass	-12442
▁Need	-12443
▁Pric	-12444
▁Pyth	-12445
▁RNAi	-12446
▁Rout	-12447
▁Shal	-12448
▁Vlad	-12449
▁beer	-12450
▁buck	-12451
▁cows	-12452
▁deny	-12453
▁dirt	-12454
▁dump	-12455
▁glyc	-12456
▁gram	-12457
▁gymn	-12458
▁ions	-12459
▁melt	-12460
▁oral	-12461
▁puls	-12462
▁qadi	-12463
▁rape	-12464
▁ring	-12465
▁sake	-12466
▁sits	-12467
▁tast	-12468
▁tort	-12469
▁trek	-12470
▁vacu	-12471
▁vend	-12472
▁weed	-12473
School	-12474
abitat	-12475
boards	-12476
direct	-12477
funded	-12478
iating	-12479
icious	-12480
ilkoot	-12481
insula	-12482
lessly	-12483
monary	-12484
mother	-12485
riages	-12486
strong	-12487
ysical	-12488
▁2001,	-12489
▁2003,	-12490
▁4,000	-12491
▁Alpha	-12492
▁Begin	-12493
▁Canal	-12494
▁Chass	-12495
▁Clark	-12496
▁Clean	-12497
▁Creek	-12498
▁Davis	-12499
▁Dutch	-12500
▁Guugu	-12501
▁Judah	-12502
▁Month	-12503
▁Scout	-12504
▁Serra	-12505
▁Sheld	-12506
▁Sound	-12507
▁Tests	-12508
▁Yazid	-12509
▁arter	-12510
▁bills	-12511
▁brows	-12512
▁canon	-12513
▁charm	-12514
▁chips	-12515
▁comet	-12516
▁draws	-12517
▁filib	-12518
▁freed	-12519
▁genus	-12520
▁herbs	-12521
▁imbal	-12522
▁jewel	-12523
▁juror	-12524
▁parks	-12525
▁reads	-12526
▁reefs	-12527
▁revel	-12528
▁rings	-12529
▁ruler	-12530
▁salts	-12531
▁sheep	-12532
▁sperm	-12533
▁spont	-12534
▁tempt	-12535
▁tower	-12536
▁trium	-12537
▁truck	-12538
counter	-12539
eedback	-12540
ivative	-12541
utation	-12542
▁(2005)	-12543
▁Argent	-12544
▁Bacter	-12545
▁Cavern	-12546
▁Course	-12547
▁Effect	-12548
▁Flight	-12549
▁Impact	-12550
▁Khumbu	-12551
▁Milner	-12552
▁NetBSD	-12553
▁Osages	-12554
▁Period	-12555
▁Person	-12556
▁Quincy	-12557
▁Ronald	-12558
▁Summer	-12559
▁Sweden	-12560
▁aboard	-12561
▁assert	-12562
▁autumn	-12563
▁ballot	-12564
▁binary	-12565
▁blacks	-12566
▁bottle	-12567
▁buying	-12568
▁cataly	-12569
▁clouds	-12570
▁colony	-12571
▁costly	-12572
▁curren	-12573
▁darker	-12574
▁depths	-12575
▁dinner	-12576
▁duplic	-12577
▁fibers	-12578
▁grades	-12579
▁locate	-12580
▁namely	-12581
▁potato	-12582
▁predom	-12583
▁quoted	-12584
▁refrig	-12585
▁relate	-12586
▁rulers	-12587
▁sensor	-12588
▁spider	-12589
▁styles	-12590
▁subtle	-12591
▁throat	-12592
▁ticket	-12593
▁unreal	-12594
▁update	-12595
▁uptake	-12596
▁verify	-12597
▁walked	-12598
▁wicked	-12599
cedented	-12600
economic	-12601
erennial	-12602
heastern	-12603
ibration	-12604
ilibrium	-12605
lastname	-12606
quarters	-12607
stepping	-12608
▁Account	-12609
▁Alberta	-12610
▁Ancient	-12611
▁Anishok	-12612
▁Demonst	-12613
▁Jackson	-12614
▁Karbala	-12615
▁Matthew	-12616
▁Popular	-12617
▁Schools	-12618
▁Twitter	-12619
▁Various	-12620
▁amyloid	-12621
▁anthrop	-12622
▁backups	-12623
▁conform	-12624
▁discrim	-12625
▁educate	-12626
▁emotion	-12627
▁farther	-12628
▁gateway	-12629
▁implies	-12630
▁inspect	-12631
▁lecture	-12632
▁modules	-12633
▁monarch	-12634
▁painted	-12635
▁peppers	-12636
▁profile	-12637
▁relates	-12638
▁relieve	-12639
▁scanned	-12640
▁secrets	-12641
▁seminar	-12642
▁shelter	-12643
▁shorter	-12644
▁utilize	-12645
▁winding	-12646
aceutical	-12647
amination	-12648
antaloupe	-12649
iciencies	-12650
oglobulin	-12651
organisms	-12652
▁Chilkoot	-12653
▁Elective	-12654
▁Florence	-12655
▁Franklin	-12656
▁Magazine	-12657
▁Medicare	-12658
▁Multiple	-12659
▁Persians	-12660
▁abundant	-12661
▁advocacy	-12662
▁chapters	-12663
▁choosing	-12664
▁churches	-12665
▁commerce	-12666
▁conclude	-12667
▁contempl	-12668
▁customer	-12669
▁epidemic	-12670
▁estrogen	-12671
▁examines	-12672
▁expendit	-12673
▁genealog	-12674
▁globally	-12675
▁impaired	-12676
▁interior	-12677
▁irrevers	-12678
▁payments	-12679
▁promotes	-12680
▁prostate	-12681
▁releases	-12682
▁retained	-12683
▁senators	-12684
▁soybeans	-12685
▁squirrel	-12686
▁targeted	-12687
▁terrible	-12688
▁utilized	-12689
▁vicinity	-12690
vitational	-12691
▁Authority	-12692
▁Disorders	-12693
▁Ecosystem	-12694
▁Essential	-12695
▁Executive	-12696
▁Kampuchea	-12697
▁Northwest	-12698
▁Political	-12699
▁Programme	-12700
▁Relations	-12701
▁Scripture	-12702
▁Similarly	-12703
▁Technical	-12704
▁Valencian	-12705
▁advocates	-12706
▁airplanes	-12707
▁amphipods	-12708
▁attending	-12709
▁attribute	-12710
▁automatic	-12711
▁companion	-12712
▁complaint	-12713
▁disappear	-12714
▁disasters	-12715
▁exclusive	-12716
▁extracted	-12717
▁healthier	-12718
▁inhibitor	-12719
▁integrate	-12720
▁irregular	-12721
▁placement	-12722
▁reporting	-12723
▁reproduce	-12724
▁requested	-12725
▁resonance	-12726
▁respected	-12727
▁survivors	-12728
▁therapist	-12729
▁traveling	-12730
▁witnessed	-12731
▁Publishing	-12732
▁accelerate	-12733
▁acceptance	-12734
▁biologists	-12735
▁contagious	-12736
▁contradict	-12737
▁critically	-12738
▁deflection	-12739
▁highlights	-12740
▁indicators	-12741
▁instructor	-12742
▁practition	-12743
▁roundabout	-12744
▁stretching	-12745
▁thoroughly	-12746
▁violations	-12747
▁wastewater	-12748
▁Electricity	-12749
▁Fortunately	-12750
▁Qualitative	-12751
▁acquisition	-12752
▁alternating	-12753
▁approaching	-12754
▁arrangement	-12755
▁assignments	-12756
▁cooperative	-12757
▁disappeared	-12758
▁distinguish	-12759
▁enterprises	-12760
▁extensively	-12761
▁federations	-12762
▁inheritance	-12763
▁nutritional	-12764
▁programming	-12765
▁spectacular	-12766
▁temporarily	-12767
▁transported	-12768
▁underground	-12769
▁vaccination	-12770
▁appreciation	-12771
▁commissioned	-12772
▁manufacturer	-12773
▁overwhelming	-12774
▁surveillance	-12775
▁appropriately	-12776
▁radioactivity	-12777
▁unprecedented	-12778
▁Representatives	-12779
.-	-12780
.:	-12781
06	-12782
58	-12783
Bs	-12784
MI	-12785
Ne	-12786
PH	-12787
RL	-12788
SE	-12789
gm	-12790
ho	-12791
oS	-12792
-11	-12793
-26	-12794
-37	-12795
11:	-12796
16/	-12797
38/	-12798
Ass	-12799
Com	-12800
Med	-12801
PAA	-12802
PAC	-12803
PDF	-12804
Sec	-12805
Syn	-12806
aan	-12807
aea	-12808
bat	-12809
cal	-12810
dam	-12811
ika	-12812
irs	-12813
lab	-12814
lat	-12815
neg	-12816
npo	-12817
nty	-12818
oin	-12819
rem	-12820
six	-12821
two	-12822
unc	-12823
web	-12824
▁$2	-12825
▁04	-12826
▁47	-12827
▁6:	-12828
▁Au	-12829
▁Hu	-12830
▁LT	-12831
▁MR	-12832
▁TR	-12833
▁na	-12834
▁nm	-12835
2008	-12836
AIDS	-12837
John	-12838
July	-12839
Mark	-12840
abis	-12841
acco	-12842
acre	-12843
amic	-12844
anen	-12845
arth	-12846
asis	-12847
aved	-12848
axis	-12849
bone	-12850
emen	-12851
gien	-12852
half	-12853
hist	-12854
hour	-12855
iang	-12856
imir	-12857
itiz	-12858
iyah	-12859
lact	-12860
odge	-12861
olas	-12862
ooks	-12863
rell	-12864
seud	-12865
uits	-12866
weed	-12867
||3|	-12868
▁154	-12869
▁1:1	-12870
▁978	-12871
▁Bob	-12872
▁HGH	-12873
▁Kre	-12874
▁Nub	-12875
▁OSI	-12876
▁Pul	-12877
▁Roc	-12878
▁Sac	-12879
▁Tax	-12880
▁Wil	-12881
▁YOU	-12882
▁Yim	-12883
▁ape	-12884
▁gel	-12885
▁gly	-12886
▁hal	-12887
▁ink	-12888
▁jet	-12889
▁lad	-12890
▁obl	-12891
▁sap	-12892
▁svn	-12893
▁tob	-12894
▁ton	-12895
Islam	-12896
akota	-12897
allas	-12898
allic	-12899
anyon	-12900
assed	-12901
aurus	-12902
depth	-12903
enter	-12904
ester	-12905
estig	-12906
heads	-12907
heart	-12908
ishop	-12909
loads	-12910
luded	-12911
luent	-12912
month	-12913
night	-12914
north	-12915
oneme	-12916
order	-12917
oscow	-12918
ostic	-12919
phony	-12920
produ	-12921
rickx	-12922
rimon	-12923
scill	-12924
there	-12925
union	-12926
▁ANSI	-12927
▁Anth	-12928
▁Arth	-12929
▁Bibl	-12930
▁Bism	-12931
▁Blue	-12932
▁Ceti	-12933
▁Chen	-12934
▁Else	-12935
▁Eval	-12936
▁Fall	-12937
▁Fern	-12938
▁Greg	-12939
▁Help	-12940
▁Look	-12941
▁MBCT	-12942
▁Marx	-12943
▁NOAA	-12944
▁PHED	-12945
▁Palm	-12946
▁Self	-12947
▁bite	-12948
▁buff	-12949
▁gest	-12950
▁hind	-12951
▁hipp	-12952
▁loud	-12953
▁mant	-12954
▁nort	-12955
▁purg	-12956
▁sati	-12957
▁tent	-12958
Syncop	-12959
arding	-12960
author	-12961
cephal	-12962
energy	-12963
esthet	-12964
eurial	-12965
iances	-12966
irates	-12967
master	-12968
ocking	-12969
ocytes	-12970
odcast	-12971
otypes	-12972
oubted	-12973
record	-12974
second	-12975
stones	-12976
ustion	-12977
▁(1999	-12978
▁(2000	-12979
▁1999.	-12980
▁2004,	-12981
▁Diego	-12982
▁Doyle	-12983
▁Dynam	-12984
▁Faith	-12985
▁Grade	-12986
▁Himal	-12987
▁Holid	-12988
▁Jewry	-12989
▁Lease	-12990
▁Lower	-12991
▁Occup	-12992
▁Paulo	-12993
▁Prize	-12994
▁Radio	-12995
▁Susan	-12996
▁Venus	-12997
▁Visit	-12998
▁aston	-12999
▁boron	-13000
▁conve	-13001
▁dance	-13002
▁decay	-13003
▁dirty	-13004
▁disse	-13005
▁hosts	-13006
▁illeg	-13007
▁inaug	-13008
▁lymph	-13009
▁march	-13010
▁prest	-13011
▁ridge	-13012
▁sheet	-13013
▁surre	-13014
▁talks	-13015
▁tears	-13016
▁tract	-13017
▁trunk	-13018
▁whale	-13019
▁wings	-13020
itarian	-13021
limited	-13022
ogamous	-13023
ounding	-13024
riptive	-13025
tension	-13026
thening	-13027
workers	-13028
▁Antony	-13029
▁Canyon	-13030
▁Compar	-13031
▁Kromko	-13032
▁Master	-13033
▁Reform	-13034
▁Vienna	-13035
▁abroad	-13036
▁absent	-13037
▁adject	-13038
▁assets	-13039
▁behave	-13040
▁builds	-13041
▁compat	-13042
▁confer	-13043
▁deploy	-13044
▁divers	-13045
▁driver	-13046
▁endocr	-13047
▁equity	-13048
▁flavor	-13049
▁fungal	-13050
▁fusion	-13051
▁ghosts	-13052
▁gotten	-13053
▁guests	-13054
▁handic	-13055
▁haptic	-13056
▁hunted	-13057
▁ignore	-13058
▁induce	-13059
▁intern	-13060
▁lacked	-13061
▁legacy	-13062
▁manusc	-13063
▁marvel	-13064
▁mixing	-13065
▁panels	-13066
▁pulled	-13067
▁rabbis	-13068
▁raises	-13069
▁rebels	-13070
▁remedy	-13071
▁repeat	-13072
▁rocket	-13073
▁saving	-13074
▁scenes	-13075
▁seldom	-13076
▁senses	-13077
▁solids	-13078
▁spiral	-13079
▁stayed	-13080
▁suited	-13081
▁tender	-13082
▁volcan	-13083
▁voters	-13084
▁voting	-13085
▁whites	-13086
▁worthy	-13087
children	-13088
learning	-13089
ollywood	-13090
▁Antioch	-13091
▁Connect	-13092
▁Contact	-13093
▁Defense	-13094
▁Density	-13095
▁Finland	-13096
▁Germans	-13097
▁Imagine	-13098
▁Methods	-13099
▁Persons	-13100
▁Prevent	-13101
▁Slavery	-13102
▁Smoking	-13103
▁Tuesday	-13104
▁Univers	-13105
▁Updated	-13106
▁acreage	-13107
▁beaches	-13108
▁berries	-13109
▁besides	-13110
▁blocked	-13111
▁broader	-13112
▁ceremon	-13113
▁compete	-13114
▁crossed	-13115
▁default	-13116
▁destiny	-13117
▁failing	-13118
▁fringed	-13119
▁growers	-13120
▁harmony	-13121
▁hazards	-13122
▁imposed	-13123
▁inertia	-13124
▁joining	-13125
▁locally	-13126
▁mailing	-13127
▁miracle	-13128
▁restart	-13129
▁returns	-13130
▁reviews	-13131
▁senator	-13132
▁sending	-13133
▁servant	-13134
▁shallow	-13135
▁shouldn	-13136
▁texture	-13137
▁touched	-13138
▁upright	-13139
▁wealthy	-13140
▁whereby	-13141
▁worried	-13142
:10.1038/	-13143
connected	-13144
efficient	-13145
roportion	-13146
▁Approval	-13147
▁CobraNet	-13148
▁Hispanic	-13149
▁Kentucky	-13150
▁Literacy	-13151
▁Marshall	-13152
▁Nebraska	-13153
▁Particip	-13154
▁Programs	-13155
▁Stephens	-13156
▁affinity	-13157
▁calories	-13158
▁cannabis	-13159
▁chickens	-13160
▁conquest	-13161
▁deciding	-13162
▁destruct	-13163
▁earnings	-13164
▁emission	-13165
▁founding	-13166
▁imported	-13167
▁inferior	-13168
▁inhibits	-13169
▁junction	-13170
▁meanings	-13171
▁outlined	-13172
▁password	-13173
▁peaceful	-13174
▁pheasant	-13175
▁prohibit	-13176
▁promoted	-13177
▁rubbings	-13178
▁severely	-13179
▁sexually	-13180
▁sickness	-13181
▁stopping	-13182
▁surgical	-13183
▁surprise	-13184
▁Argentina	-13185
▁Cambodian	-13186
▁Cognitive	-13187
▁Hendrickx	-13188
▁Socialist	-13189
▁abolition	-13190
▁amendment	-13191
▁artifacts	-13192
▁breakdown	-13193
▁conductor	-13194
▁considers	-13195
▁consisted	-13196
▁deposited	-13197
▁depressed	-13198
▁desirable	-13199
▁dominated	-13200
▁embryonic	-13201
▁exploited	-13202
▁footprint	-13203
▁happiness	-13204
▁inability	-13205
▁invisible	-13206
▁livestock	-13207
▁mechanics	-13208
▁nonprofit	-13209
▁preceding	-13210
▁privilege	-13211
▁provinces	-13212
▁reasoning	-13213
▁rejection	-13214
▁reservoir	-13215
▁scattered	-13216
▁sentenced	-13217
▁somewhere	-13218
▁specially	-13219
▁vegetable	-13220
▁workshops	-13221
Syncopation	-13222
▁Employment	-13223
▁altogether	-13224
▁attempting	-13225
▁authorized	-13226
▁behavioral	-13227
▁compliance	-13228
▁congestion	-13229
▁continuity	-13230
▁controller	-13231
▁extraction	-13232
▁hepatocyte	-13233
▁identifies	-13234
▁inhibitors	-13235
▁morphology	-13236
▁originated	-13237
▁practicing	-13238
▁unexpected	-13239
▁acknowledge	-13240
▁anticipated	-13241
▁assessments	-13242
▁comfortable	-13243
▁commodities	-13244
▁hummingbird	-13245
▁inspiration	-13246
▁synchronous	-13247
▁Agricultural	-13248
▁combinations	-13249
▁commercially	-13250
▁encyclopedia	-13251
▁examinations	-13252
▁fermentation	-13253
▁manufactured	-13254
▁transactions	-13255
▁Comprehensive	-13256
▁controversial	-13257
▁hyperspectral	-13258
▁manifestation	-13259
▁transcription	-13260
▁Discrimination	-13261
▁recommendation	-13262
▁internationally	-13263
▁interpretations	-13264
)?	-13265
3-	-13266
52	-13267
Bl	-13268
El	-13269
FA	-13270
FC	-13271
HG	-13272
KE	-13273
ML	-13274
PR	-13275
mo	-13276
vo	-13277
”)	-13278
-25	-13279
API	-13280
ORK	-13281
aam	-13282
bek	-13283
bet	-13284
bro	-13285
eld	-13286
hol	-13287
iii	-13288
imp	-13289
ito	-13290
oct	-13291
som	-13292
uda	-13293
uns	-13294
whe	-13295
wid	-13296
▁00	-13297
▁5-	-13298
▁AC	-13299
▁LA	-13300
▁LE	-13301
▁Ny	-13302
▁Sv	-13303
▁TE	-13304
▁WI	-13305
▁ii	-13306
▁lb	-13307
▁mi	-13308
▁vi	-13309
...”	-13310
Hist	-13311
Proc	-13312
arck	-13313
aret	-13314
avil	-13315
bury	-13316
ceae	-13317
cost	-13318
cott	-13319
empl	-13320
harm	-13321
hend	-13322
high	-13323
igil	-13324
ocry	-13325
onts	-13326
orge	-13327
orse	-13328
pton	-13329
rage	-13330
riel	-13331
risk	-13332
rock	-13333
rung	-13334
skin	-13335
uine	-13336
umns	-13337
unks	-13338
urse	-13339
uten	-13340
will	-13341
▁(16	-13342
▁179	-13343
▁20-	-13344
▁5:1	-13345
▁620	-13346
▁640	-13347
▁Bow	-13348
▁CPP	-13349
▁Cer	-13350
▁Cla	-13351
▁Dur	-13352
▁Ent	-13353
▁Han	-13354
▁Hun	-13355
▁Kur	-13356
▁Led	-13357
▁Mes	-13358
▁NIH	-13359
▁Onc	-13360
▁Opt	-13361
▁Own	-13362
▁PCI	-13363
▁Rub	-13364
▁Say	-13365
▁Syn	-13366
▁alj	-13367
▁bat	-13368
▁cav	-13369
▁hat	-13370
▁haw	-13371
▁jun	-13372
▁mph	-13373
▁orn	-13374
▁pra	-13375
▁sta	-13376
▁tam	-13377
▁tit	-13378
▁tut	-13379
-2012	-13380
/2012	-13381
First	-13382
almud	-13383
andal	-13384
apses	-13385
bohyd	-13386
bride	-13387
gered	-13388
grand	-13389
httpd	-13390
human	-13391
ignty	-13392
iscal	-13393
ismic	-13394
itory	-13395
izoph	-13396
letin	-13397
lings	-13398
maker	-13399
mount	-13400
ocate	-13401
oncil	-13402
quest	-13403
renia	-13404
urate	-13405
width	-13406
▁1989	-13407
▁1996	-13408
▁Badr	-13409
▁Balk	-13410
▁Benj	-13411
▁Capt	-13412
▁Dawn	-13413
▁Days	-13414
▁Ezek	-13415
▁Hold	-13416
▁Iraq	-13417
▁Jenn	-13418
▁LENR	-13419
▁Lead	-13420
▁Mamm	-13421
▁Nich	-13422
▁Perm	-13423
▁Pine	-13424
▁Rain	-13425
▁Sina	-13426
▁Song	-13427
▁Stra	-13428
▁Sulu	-13429
▁USDA	-13430
▁Wolf	-13431
▁amid	-13432
▁amin	-13433
▁anch	-13434
▁bapt	-13435
▁beet	-13436
▁bron	-13437
▁butt	-13438
▁feat	-13439
▁gaps	-13440
▁grid	-13441
▁heal	-13442
▁inev	-13443
▁mast	-13444
▁panc	-13445
▁pest	-13446
▁tear	-13447
▁tide	-13448
▁unst	-13449
▁wine	-13450
▁wool	-13451
-2010:	-13452
-2011:	-13453
Figure	-13454
United	-13455
abited	-13456
ailand	-13457
ancial	-13458
angers	-13459
arrhea	-13460
consum	-13461
endous	-13462
filled	-13463
headed	-13464
ighted	-13465
iguous	-13466
ishers	-13467
istent	-13468
itects	-13469
ithirr	-13470
lihood	-13471
linked	-13472
olytic	-13473
opathy	-13474
ossary	-13475
owners	-13476
phabet	-13477
rology	-13478
unning	-13479
▁2000.	-13480
▁Aimée	-13481
▁Allah	-13482
▁Areas	-13483
▁Block	-13484
▁Conan	-13485
▁Eight	-13486
▁Guard	-13487
▁Imper	-13488
▁Intel	-13489
▁Lance	-13490
▁Links	-13491
▁Midas	-13492
▁Moroc	-13493
▁NCPAC	-13494
▁Naval	-13495
▁Norwe	-13496
▁Obama	-13497
▁Phoen	-13498
▁Sarah	-13499
▁Share	-13500
▁Terms	-13501
▁Thank	-13502
▁UNHCR	-13503
▁Watch	-13504
▁Whole	-13505
▁Youth	-13506
▁anger	-13507
▁aspir	-13508
▁botan	-13509
▁brill	-13510
▁buses	-13511
▁dairy	-13512
▁drops	-13513
▁dwell	-13514
▁glial	-13515
▁illum	-13516
▁inapp	-13517
▁kills	-13518
▁lakes	-13519
▁lasts	-13520
▁leaks	-13521
▁lunch	-13522
▁meets	-13523
▁mourn	-13524
▁nails	-13525
▁noteb	-13526
▁nurse	-13527
▁ought	-13528
▁panic	-13529
▁ponds	-13530
▁popul	-13531
▁resur	-13532
▁rever	-13533
▁rigid	-13534
▁shoem	-13535
▁shoot	-13536
▁snaps	-13537
▁spots	-13538
▁stain	-13539
▁stere	-13540
▁suble	-13541
▁teens	-13542
▁tones	-13543
▁trail	-13544
▁upset	-13545
▁vegan	-13546
▁verse	-13547
anguage	-13548
assment	-13549
erendum	-13550
estinal	-13551
inology	-13552
instein	-13553
issance	-13554
ivating	-13555
natural	-13556
powered	-13557
uminous	-13558
written	-13559
▁1998).	-13560
▁Around	-13561
▁Bridge	-13562
▁Census	-13563
▁Create	-13564
▁Gustav	-13565
▁Husain	-13566
▁Issues	-13567
▁Luther	-13568
▁Moscow	-13569
▁Murray	-13570
▁Nasser	-13571
▁Norway	-13572
▁SYRIZA	-13573
▁Syrian	-13574
▁Talmud	-13575
▁Taylor	-13576
▁Things	-13577
▁blasts	-13578
▁canons	-13579
▁cycles	-13580
▁dispar	-13581
▁duties	-13582
▁embarr	-13583
▁ending	-13584
▁favour	-13585
▁firmly	-13586
▁flames	-13587
▁floods	-13588
▁garage	-13589
▁hammer	-13590
▁honest	-13591
▁inflic	-13592
▁landed	-13593
▁legend	-13594
▁losses	-13595
▁median	-13596
▁melons	-13597
▁packed	-13598
▁planes	-13599
▁pupils	-13600
▁quarks	-13601
▁quasar	-13602
▁rabies	-13603
▁ranges	-13604
▁slopes	-13605
▁sooner	-13606
▁stroke	-13607
▁wounds	-13608
▁yester	-13609
ccessful	-13610
election	-13611
mination	-13612
orikeets	-13613
ynthesis	-13614
▁Against	-13615
▁Archive	-13616
▁Bonding	-13617
▁Creator	-13618
▁Genesis	-13619
▁Letters	-13620
▁Neither	-13621
▁Nuclear	-13622
▁Respons	-13623
▁Romance	-13624
▁Swedish	-13625
▁Switzer	-13626
▁adapter	-13627
▁assimil	-13628
▁athlete	-13629
▁belongs	-13630
▁declare	-13631
▁dynasty	-13632
▁ethanol	-13633
▁expense	-13634
▁fishery	-13635
▁fragile	-13636
▁handful	-13637
▁hydroph	-13638
▁imports	-13639
▁lifting	-13640
▁melting	-13641
▁notable	-13642
▁placing	-13643
▁pockets	-13644
▁pressed	-13645
▁prosper	-13646
▁reserve	-13647
▁revenge	-13648
▁shortly	-13649
▁stature	-13650
▁stellar	-13651
▁stretch	-13652
▁tempest	-13653
▁tobacco	-13654
▁tsunami	-13655
▁updates	-13656
▁useless	-13657
▁workshe	-13658
▁yeontan	-13659
mentioned	-13660
regulated	-13661
sequently	-13662
uminating	-13663
umulative	-13664
▁Accessed	-13665
▁Advanced	-13666
▁Bismarck	-13667
▁Caucasus	-13668
▁Chemical	-13669
▁Cultural	-13670
▁Instruct	-13671
▁Internal	-13672
▁Overview	-13673
▁Projects	-13674
▁Recovery	-13675
▁Resource	-13676
▁Rhetoric	-13677
▁Thailand	-13678
▁Training	-13679
▁Vladimir	-13680
▁absorbed	-13681
▁advocate	-13682
▁answered	-13683
▁apostles	-13684
▁blessing	-13685
▁chairman	-13686
▁chloride	-13687
▁claiming	-13688
▁coloring	-13689
▁counting	-13690
▁declines	-13691
▁dinosaur	-13692
▁displays	-13693
▁embedded	-13694
▁enabling	-13695
▁enrolled	-13696
▁ensemble	-13697
▁festival	-13698
▁freezing	-13699
▁hormones	-13700
▁infrared	-13701
▁insomnia	-13702
▁invented	-13703
▁killings	-13704
▁kinetics	-13705
▁listener	-13706
▁managers	-13707
▁maturity	-13708
▁mistakes	-13709
▁operates	-13710
▁outbreak	-13711
▁periodic	-13712
▁prophets	-13713
▁proposal	-13714
▁ratified	-13715
▁reactors	-13716
▁recalled	-13717
▁resemble	-13718
▁resident	-13719
▁schizoph	-13720
▁servants	-13721
▁settlers	-13722
▁socially	-13723
▁squashes	-13724
▁transist	-13725
▁tyrosine	-13726
▁underway	-13727
▁unnecess	-13728
▁warriors	-13729
▁wireless	-13730
▁Caporetto	-13731
▁Emergency	-13732
▁Important	-13733
▁Jefferson	-13734
▁Languages	-13735
▁Sheldrake	-13736
▁Southeast	-13737
▁achieving	-13738
▁additives	-13739
▁allegedly	-13740
▁countless	-13741
▁courtroom	-13742
▁empirical	-13743
▁everybody	-13744
▁firstname	-13745
▁hypervent	-13746
▁injection	-13747
▁monastery	-13748
▁organised	-13749
▁paragraph	-13750
▁purchases	-13751
▁purgatory	-13752
▁realistic	-13753
▁scripture	-13754
▁selective	-13755
▁signature	-13756
▁signifies	-13757
▁strongest	-13758
▁strontium	-13759
▁telescope	-13760
▁undoubted	-13761
▁utilizing	-13762
▁withstand	-13763
▁Alexandria	-13764
▁Conditions	-13765
▁Geological	-13766
▁Pediatrics	-13767
▁absorption	-13768
▁approached	-13769
▁autonomous	-13770
▁complaints	-13771
▁compulsory	-13772
▁emphasized	-13773
▁exercising	-13774
▁formations	-13775
▁hemisphere	-13776
▁horizontal	-13777
▁infectious	-13778
▁insulation	-13779
▁livelihood	-13780
▁mathematic	-13781
▁mysterious	-13782
▁navigation	-13783
▁organizing	-13784
▁physiology	-13785
▁preserving	-13786
▁reflecting	-13787
▁similarity	-13788
▁stagnation	-13789
▁undergoing	-13790
▁Mindfulness	-13791
▁Switzerland	-13792
▁appointment	-13793
▁butterflies	-13794
▁collections	-13795
▁conventions	-13796
▁declaration	-13797
▁deflections	-13798
▁destination	-13799
▁encouraging	-13800
▁establishes	-13801
▁expressions	-13802
▁foundations	-13803
▁introducing	-13804
▁practically	-13805
▁proprietary	-13806
▁settlements	-13807
▁sovereignty	-13808
▁supervision	-13809
▁territorial	-13810
▁ultraviolet	-13811
▁Commissioner	-13812
▁Professional	-13813
▁announcement	-13814
▁contaminated	-13815
▁differential	-13816
▁historically	-13817
▁hypertension	-13818
▁illustration	-13819
▁implementing	-13820
▁laboratories	-13821
▁publications	-13822
▁satisfaction	-13823
▁similarities	-13824
▁architectural	-13825
▁configuration	-13826
▁contamination	-13827
▁disproportion	-13828
▁distinguished	-13829
▁schizophrenia	-13830
▁microorganisms	-13831
▁pharmaceutical	-13832
▁rehabilitation	-13833
▁scientifically	-13834
54	-13835
71	-13836
At	-13837
Ed	-13838
HD	-13839
OK	-13840
TE	-13841
UP	-13842
ni	-13843
sl	-13844
va	-13845
–6	-13846
,''	-13847
-16	-13848
/11	-13849
50,	-13850
ASH	-13851
Can	-13852
Day	-13853
Gpp	-13854
Jan	-13855
aby	-13856
bow	-13857
bra	-13858
det	-13859
hal	-13860
iac	-13861
ibo	-13862
igm	-13863
igs	-13864
las	-13865
nik	-13866
oop	-13867
pit	-13868
veh	-13869
yll	-13870
▁56	-13871
▁61	-13872
▁Ah	-13873
▁ED	-13874
▁Fr	-13875
▁Ho	-13876
▁Ky	-13877
▁NW	-13878
▁Ub	-13879
▁ib	-13880
▁kg	-13881
▁pm	-13882
▁pu	-13883
▁py	-13884
TION	-13885
agog	-13886
akov	-13887
alin	-13888
alks	-13889
ando	-13890
arts	-13891
atar	-13892
auer	-13893
auri	-13894
aven	-13895
chap	-13896
cled	-13897
dale	-13898
died	-13899
elly	-13900
eyed	-13901
grim	-13902
hoea	-13903
icon	-13904
iege	-13905
irth	-13906
kers	-13907
ongo	-13908
post	-13909
prem	-13910
rise	-13911
ritz	-13912
rome	-13913
sohn	-13914
soon	-13915
stud	-13916
true	-13917
uate	-13918
ucks	-13919
unct	-13920
user	-13921
usha	-13922
yard	-13923
yman	-13924
zens	-13925
éada	-13926
▁(11	-13927
▁(17	-13928
▁(5)	-13929
▁165	-13930
▁17.	-13931
▁175	-13932
▁184	-13933
▁20.	-13934
▁25.	-13935
▁Abu	-13936
▁Bin	-13937
▁CAP	-13938
▁Cab	-13939
▁Dia	-13940
▁Dry	-13941
▁Few	-13942
▁Fox	-13943
▁GPS	-13944
▁Gib	-13945
▁Hem	-13946
▁Ike	-13947
▁Inv	-13948
▁Jup	-13949
▁Kra	-13950
▁MBr	-13951
▁Ont	-13952
▁PDF	-13953
▁PPO	-13954
▁RES	-13955
▁Sor	-13956
▁Sue	-13957
▁Voc	-13958
▁Yah	-13959
▁Zim	-13960
▁cet	-13961
▁dot	-13962
▁luc	-13963
▁pel	-13964
▁pix	-13965
▁sid	-13966
▁tea	-13967
▁xer	-13968
▁|||	-13969
These	-13970
acial	-13971
adesh	-13972
ayers	-13973
boche	-13974
eches	-13975
ectar	-13976
first	-13977
hotse	-13978
ilage	-13979
illus	-13980
inite	-13981
olves	-13982
orney	-13983
plate	-13984
redit	-13985
ruled	-13986
space	-13987
steps	-13988
tered	-13989
thers	-13990
thood	-13991
ukary	-13992
vance	-13993
venue	-13994
write	-13995
▁1910	-13996
▁1993	-13997
▁21:1	-13998
▁Anne	-13999
▁Base	-14000
▁Beth	-14001
▁Biol	-14002
▁Bird	-14003
▁Body	-14004
▁Born	-14005
▁Cool	-14006
▁Diet	-14007
▁Dyer	-14008
▁Edin	-14009
▁Eure	-14010
▁FREE	-14011
▁Foss	-14012
▁Goal	-14013
▁Half	-14014
▁Heat	-14015
▁Herm	-14016
▁Imam	-14017
▁Init	-14018
▁Iron	-14019
▁Juan	-14020
▁Live	-14021
▁Milk	-14022
▁Otto	-14023
▁PART	-14024
▁PLoS	-14025
▁Pand	-14026
▁Show	-14027
▁Symb	-14028
▁Vacc	-14029
▁Very	-14030
▁arom	-14031
▁auto	-14032
▁bent	-14033
▁blur	-14034
▁bull	-14035
▁bund	-14036
▁chat	-14037
▁coag	-14038
▁cobs	-14039
▁cond	-14040
▁echo	-14041
▁glia	-14042
▁gods	-14043
▁horn	-14044
▁intu	-14045
▁keys	-14046
▁lion	-14047
▁lord	-14048
▁mRNA	-14049
▁menu	-14050
▁navy	-14051
▁penc	-14052
▁rect	-14053
▁sine	-14054
▁sink	-14055
▁ster	-14056
▁void	-14057
▁zinc	-14058
Christ	-14059
Market	-14060
Option	-14061
apolis	-14062
aptist	-14063
arcity	-14064
astics	-14065
enders	-14066
engine	-14067
ieving	-14068
igraph	-14069
ilized	-14070
income	-14071
ladesh	-14072
licing	-14073
opping	-14074
perate	-14075
person	-14076
phosph	-14077
rehend	-14078
ribers	-14079
riends	-14080
▁1986,	-14081
▁2013.	-14082
▁5,000	-14083
▁Armen	-14084
▁Aswan	-14085
▁Audio	-14086
▁Blake	-14087
▁Canon	-14088
▁Carta	-14089
▁Cohen	-14090
▁Cover	-14091
▁Croix	-14092
▁Drugs	-14093
▁Exerc	-14094
▁Extra	-14095
▁HIPAA	-14096
▁Hills	-14097
▁Innov	-14098
▁Irish	-14099
▁Judge	-14100
▁Liver	-14101
▁Magna	-14102
▁Moshe	-14103
▁Phase	-14104
▁Prime	-14105
▁Saund	-14106
▁Sport	-14107
▁Wales	-14108
▁alert	-14109
▁alien	-14110
▁align	-14111
▁annex	-14112
▁arose	-14113
▁bells	-14114
▁blend	-14115
▁boxes	-14116
▁bursa	-14117
▁careg	-14118
▁catar	-14119
▁dealt	-14120
▁donor	-14121
▁drill	-14122
▁eager	-14123
▁embod	-14124
▁excav	-14125
▁forty	-14126
▁globe	-14127
▁gover	-14128
▁grams	-14129
▁laund	-14130
▁marsh	-14131
▁misle	-14132
▁monoc	-14133
▁numer	-14134
▁owing	-14135
▁patri	-14136
▁pipes	-14137
▁proud	-14138
▁repel	-14139
▁resil	-14140
▁resum	-14141
▁rocky	-14142
▁score	-14143
▁shaft	-14144
▁siege	-14145
▁slide	-14146
▁smell	-14147
▁smugg	-14148
▁spong	-14149
▁throw	-14150
▁thumb	-14151
▁weigh	-14152
agnetic	-14153
causing	-14154
chestra	-14155
control	-14156
feeding	-14157
iologic	-14158
natella	-14159
oglobin	-14160
olation	-14161
process	-14162
ratches	-14163
species	-14164
uchanan	-14165
working	-14166
▁2003).	-14167
▁Alcira	-14168
▁Annual	-14169
▁Arusha	-14170
▁Austen	-14171
▁Austin	-14172
▁Dakota	-14173
▁Gordon	-14174
▁Hawaii	-14175
▁Humans	-14176
▁Hurric	-14177
▁Johann	-14178
▁Method	-14179
▁Nearly	-14180
▁Normal	-14181
▁Ostroh	-14182
▁Patent	-14183
▁Photos	-14184
▁Plants	-14185
▁Rancho	-14186
▁Romans	-14187
▁Senior	-14188
▁Speech	-14189
▁Streng	-14190
▁Treaty	-14191
▁Trials	-14192
▁Update	-14193
▁Yellow	-14194
▁affirm	-14195
▁banned	-14196
▁basket	-14197
▁cannib	-14198
▁casein	-14199
▁cavern	-14200
▁cement	-14201
▁cosine	-14202
▁defore	-14203
▁derive	-14204
▁divide	-14205
▁errone	-14206
▁farmer	-14207
▁foster	-14208
▁honour	-14209
▁hygien	-14210
▁incumb	-14211
▁laptop	-14212
▁nausea	-14213
▁nickel	-14214
▁pushed	-14215
▁recess	-14216
▁relies	-14217
▁repent	-14218
▁resort	-14219
▁shifts	-14220
▁strata	-14221
▁superm	-14222
▁symmet	-14223
▁traced	-14224
▁truces	-14225
▁tubing	-14226
▁unders	-14227
▁vacuum	-14228
▁vestig	-14229
Optional	-14230
ablished	-14231
breaking	-14232
etheless	-14233
iculture	-14234
iversary	-14235
lessness	-14236
mediated	-14237
missions	-14238
ositions	-14239
▁Antonio	-14240
▁Atlanta	-14241
▁Babylon	-14242
▁Chamber	-14243
▁Chronic	-14244
▁Clearly	-14245
▁Comment	-14246
▁Himalay	-14247
▁Jupiter	-14248
▁Martian	-14249
▁Members	-14250
▁Neander	-14251
▁Ontario	-14252
▁Springs	-14253
▁Summary	-14254
▁advised	-14255
▁albumin	-14256
▁ambient	-14257
▁amongst	-14258
▁archive	-14259
▁cocaine	-14260
▁columns	-14261
▁corners	-14262
▁deficit	-14263
▁depicts	-14264
▁deserve	-14265
▁domains	-14266
▁drilled	-14267
▁emperor	-14268
▁fellows	-14269
▁fiction	-14270
▁filling	-14271
▁forcing	-14272
▁grouped	-14273
▁loading	-14274
▁lowered	-14275
▁matches	-14276
▁measles	-14277
▁monsoon	-14278
▁outward	-14279
▁package	-14280
▁prestig	-14281
▁pricing	-14282
▁proving	-14283
▁qualify	-14284
▁recipes	-14285
▁refined	-14286
▁regimen	-14287
▁reinfor	-14288
▁secrecy	-14289
▁shifted	-14290
▁sincere	-14291
▁singing	-14292
▁skilled	-14293
▁soluble	-14294
▁tamarin	-14295
▁tribute	-14296
▁turtles	-14297
▁undergo	-14298
▁variant	-14299
▁volumes	-14300
▁Americas	-14301
▁Brooklyn	-14302
▁Bulletin	-14303
▁Creative	-14304
▁Download	-14305
▁Historic	-14306
▁Octavian	-14307
▁Perrimon	-14308
▁Response	-14309
▁Saunders	-14310
▁Sentence	-14311
▁Teachers	-14312
▁altering	-14313
▁archives	-14314
▁arteries	-14315
▁assembly	-14316
▁autonomy	-14317
▁boundary	-14318
▁carbohyd	-14319
▁climbing	-14320
▁colleges	-14321
▁communal	-14322
▁currency	-14323
▁delicate	-14324
▁dolphins	-14325
▁formally	-14326
▁formerly	-14327
▁improves	-14328
▁injected	-14329
▁interven	-14330
▁mistaken	-14331
▁pretrial	-14332
▁prevents	-14333
▁protract	-14334
▁publicly	-14335
▁recycled	-14336
▁rendered	-14337
▁retrieve	-14338
▁societal	-14339
▁suspects	-14340
▁velocity	-14341
government	-14342
▁Chemistry	-14343
▁Discovery	-14344
▁Edinburgh	-14345
▁Frederick	-14346
▁Hollywood	-14347
▁Kirkbride	-14348
▁Norwegian	-14349
▁Telescope	-14350
▁Typically	-14351
▁Yimithirr	-14352
▁alongside	-14353
▁analyzing	-14354
▁ancestral	-14355
▁backwards	-14356
▁brilliant	-14357
▁cellulose	-14358
▁chocolate	-14359
▁contracts	-14360
▁declining	-14361
▁densities	-14362
▁disciples	-14363
▁distances	-14364
▁distribut	-14365
▁economics	-14366
▁endpoints	-14367
▁exercised	-14368
▁exhibited	-14369
▁expresses	-14370
▁fertility	-14371
▁forbidden	-14372
▁governing	-14373
▁headaches	-14374
▁immigrant	-14375
▁indicator	-14376
▁maintains	-14377
▁monuments	-14378
▁premature	-14379
▁prolonged	-14380
▁psychosis	-14381
▁releasing	-14382
▁secession	-14383
▁southwest	-14384
▁strengths	-14385
▁synagogue	-14386
▁syndromes	-14387
▁synthesis	-14388
▁transfers	-14389
▁unfolding	-14390
▁viability	-14391
▁violation	-14392
▁Bangladesh	-14393
▁Biological	-14394
▁Cannatella	-14395
▁Production	-14396
▁adaptation	-14397
▁adequately	-14398
▁administer	-14399
▁aggression	-14400
▁antibiotic	-14401
▁cantaloupe	-14402
▁combustion	-14403
▁complained	-14404
▁compressed	-14405
▁connecting	-14406
▁criticized	-14407
▁defendants	-14408
▁dimensions	-14409
▁discipline	-14410
▁durability	-14411
▁filibuster	-14412
▁hereditary	-14413
▁homosexual	-14414
▁indirectly	-14415
▁inventions	-14416
▁legitimate	-14417
▁microscope	-14418
▁motivation	-14419
▁overlooked	-14420
▁permitting	-14421
▁programmes	-14422
▁reluctance	-14423
▁separately	-14424
▁substitute	-14425
▁succession	-14426
▁tremendous	-14427
▁veterinary	-14428
culoskeletal	-14429
▁Alternative	-14430
▁Description	-14431
▁Individuals	-14432
▁Translation	-14433
▁accordingly	-14434
▁chondroitin	-14435
▁compression	-14436
▁constituted	-14437
▁continually	-14438
▁controversy	-14439
▁counterpart	-14440
▁frequencies	-14441
▁importantly	-14442
▁permanently	-14443
▁personality	-14444
▁protections	-14445
▁reliability	-14446
▁variability	-14447
▁workstation	-14448
▁Metropolitan	-14449
▁Specifically	-14450
▁accumulation	-14451
▁arrangements	-14452
▁assimilation	-14453
▁civilization	-14454
▁collectively	-14455
▁considerably	-14456
▁consultation	-14457
▁economically	-14458
▁emancipation	-14459
▁expectations	-14460
▁exploitation	-14461
▁hummingbirds	-14462
▁jurisdiction	-14463
▁modification	-14464
▁periodically	-14465
▁perspectives	-14466
▁prostitution	-14467
▁standardized	-14468
▁sufficiently	-14469
▁surroundings	-14470
▁transitional	-14471
▁abnormalities	-14472
▁communicating	-14473
▁computational	-14474
▁precipitation	-14475
▁specification	-14476
▁unfortunately	-14477
▁archaeological	-14478
▁naturalization	-14479
▁transplantation	-14480
!!	-14481
-,	-14482
/.	-14483
61	-14484
82	-14485
8:	-14486
94	-14487
="	-14488
By	-14489
Do	-14490
Os	-14491
PE	-14492
RW	-14493
cm	-14494
kg	-14495
").	-14496
12.	-14497
ANS	-14498
CES	-14499
Eng	-14500
Lat	-14501
Mar	-14502
Mus	-14503
OLV	-14504
PER	-14505
Per	-14506
Rep	-14507
Sou	-14508
Sub	-14509
UCN	-14510
USA	-14511
aco	-14512
aki	-14513
aws	-14514
bus	-14515
chu	-14516
fam	-14517
gee	-14518
hew	-14519
iki	-14520
iro	-14521
lan	-14522
mag	-14523
omo	-14524
opa	-14525
ouk	-14526
pel	-14527
pot	-14528
pox	-14529
ril	-14530
srv	-14531
teg	-14532
tub	-14533
||2	-14534
▁(7	-14535
▁//	-14536
▁5:	-14537
▁72	-14538
▁95	-14539
▁96	-14540
▁BB	-14541
▁CE	-14542
▁CL	-14543
▁DA	-14544
▁EX	-14545
▁FA	-14546
▁JH	-14547
▁SN	-14548
▁Sn	-14549
▁Tu	-14550
▁Uz	-14551
▁YU	-14552
▁Ya	-14553
▁ps	-14554
That	-14555
Tube	-14556
airi	-14557
airo	-14558
arag	-14559
arat	-14560
base	-14561
beit	-14562
clad	-14563
dest	-14564
eine	-14565
emon	-14566
gene	-14567
gree	-14568
hard	-14569
ilst	-14570
ilty	-14571
iran	-14572
ivic	-14573
left	-14574
maic	-14575
mile	-14576
news	-14577
oler	-14578
olst	-14579
plan	-14580
psil	-14581
quet	-14582
rass	-14583
some	-14584
tech	-14585
uart	-14586
uche	-14587
uity	-14588
ulls	-14589
uria	-14590
velt	-14591
▁(14	-14592
▁105	-14593
▁10:	-14594
▁177	-14595
▁21.	-14596
▁27,	-14597
▁40%	-14598
▁BBC	-14599
▁Bis	-14600
▁Byz	-14601
▁Cad	-14602
▁Cyt	-14603
▁Der	-14604
▁ESA	-14605
▁Eve	-14606
▁FCC	-14607
▁Hog	-14608
▁Lad	-14609
▁Len	-14610
▁Luk	-14611
▁Mak	-14612
▁Miy	-14613
▁Moy	-14614
▁Rou	-14615
▁Tow	-14616
▁Wel	-14617
▁dop	-14618
▁gms	-14619
▁gyr	-14620
▁iii	-14621
▁joy	-14622
▁les	-14623
▁lig	-14624
▁los	-14625
▁peb	-14626
▁rib	-14627
▁une	-14628
▁wre	-14629
Based	-14630
South	-14631
adrat	-14632
alpha	-14633
andum	-14634
angut	-14635
annel	-14636
apsed	-14637
arium	-14638
color	-14639
eight	-14640
eness	-14641
esign	-14642
etite	-14643
graph	-14644
ifier	-14645
inals	-14646
neath	-14647
olars	-14648
olden	-14649
orsed	-14650
otics	-14651
overs	-14652
rowse	-14653
setti	-14654
toxic	-14655
unity	-14656
ysics	-14657
▁1917	-14658
▁1956	-14659
▁ANWR	-14660
▁Ages	-14661
▁Birm	-14662
▁Cand	-14663
▁Chin	-14664
▁Coal	-14665
▁Code	-14666
▁Emma	-14667
▁Gene	-14668
▁Huss	-14669
▁ISSN	-14670
▁IUCN	-14671
▁Join	-14672
▁LTPD	-14673
▁Late	-14674
▁Left	-14675
▁Loey	-14676
▁Marc	-14677
▁Math	-14678
▁Menc	-14679
▁Natl	-14680
▁Nile	-14681
▁Pict	-14682
▁Plus	-14683
▁RAID	-14684
▁SCSI	-14685
▁Saul	-14686
▁Ship	-14687
▁Side	-14688
▁Soon	-14689
▁Task	-14690
▁Unit	-14691
▁Vers	-14692
▁Wond	-14693
▁Yuan	-14694
▁atom	-14695
▁carc	-14696
▁chim	-14697
▁coli	-14698
▁crem	-14699
▁fare	-14700
▁flux	-14701
▁glow	-14702
▁hasn	-14703
▁hast	-14704
▁hint	-14705
▁icon	-14706
▁jack	-14707
▁jail	-14708
▁kang	-14709
▁leuk	-14710
▁lign	-14711
▁nost	-14712
▁odds	-14713
▁olig	-14714
▁pine	-14715
▁pose	-14716
▁publ	-14717
▁rats	-14718
▁ripe	-14719
▁rods	-14720
▁sibl	-14721
▁unch	-14722
advant	-14723
ailing	-14724
arians	-14725
asping	-14726
atured	-14727
gorith	-14728
icides	-14729
idable	-14730
otechn	-14731
rosion	-14732
search	-14733
uating	-14734
umatic	-14735
wright	-14736
▁Alice	-14737
▁Annex	-14738
▁CONSU	-14739
▁Chand	-14740
▁Coord	-14741
▁Dougl	-14742
▁Fresh	-14743
▁Fritz	-14744
▁Imple	-14745
▁Laure	-14746
▁Motor	-14747
▁Nepal	-14748
▁Nixon	-14749
▁Osset	-14750
▁Parks	-14751
▁Partn	-14752
▁Plate	-14753
▁Rosen	-14754
▁Sandy	-14755
▁Scyth	-14756
▁Spect	-14757
▁Trust	-14758
▁Truth	-14759
▁Turks	-14760
▁admit	-14761
▁allev	-14762
▁badly	-14763
▁bands	-14764
▁biped	-14765
▁camps	-14766
▁cease	-14767
▁clues	-14768
▁disob	-14769
▁gross	-14770
▁heter	-14771
▁inacc	-14772
▁linux	-14773
▁melan	-14774
▁neutr	-14775
▁outdo	-14776
▁parad	-14777
▁ppGpp	-14778
▁prize	-14779
▁prose	-14780
▁queen	-14781
▁queue	-14782
▁regen	-14783
▁relic	-14784
▁rigor	-14785
▁scans	-14786
▁seeks	-14787
▁slate	-14788
▁swamp	-14789
▁timer	-14790
▁trell	-14791
▁trips	-14792
▁truce	-14793
▁unman	-14794
▁upgra	-14795
▁urged	-14796
▁wives	-14797
Address	-14798
Islamic	-14799
January	-14800
content	-14801
erating	-14802
healthy	-14803
ictions	-14804
ificant	-14805
oslovak	-14806
rington	-14807
skinned	-14808
version	-14809
éadaoin	-14810
▁20,000	-14811
▁2004).	-14812
▁Across	-14813
▁Always	-14814
▁Animal	-14815
▁Answer	-14816
▁Arthur	-14817
▁Asthma	-14818
▁Barcel	-14819
▁Consum	-14820
▁Dallas	-14821
▁Damasc	-14822
▁Ernest	-14823
▁Fields	-14824
▁Galile	-14825
▁Genome	-14826
▁Herbal	-14827
▁Lhotse	-14828
▁Mother	-14829
▁Nether	-14830
▁Prices	-14831
▁Rivers	-14832
▁Rivest	-14833
▁Stefan	-14834
▁TALENs	-14835
▁Topics	-14836
▁Valent	-14837
▁Walker	-14838
▁anyway	-14839
▁backed	-14840
▁canvas	-14841
▁cetane	-14842
▁cotton	-14843
▁deputy	-14844
▁dispat	-14845
▁dozens	-14846
▁drying	-14847
▁eighty	-14848
▁ethics	-14849
▁excite	-14850
▁exempl	-14851
▁gastro	-14852
▁gently	-14853
▁guilty	-14854
▁herbal	-14855
▁impose	-14856
▁ingest	-14857
▁jargon	-14858
▁leases	-14859
▁lenses	-14860
▁lesser	-14861
▁makers	-14862
▁missed	-14863
▁nobles	-14864
▁offset	-14865
▁oscill	-14866
▁patron	-14867
▁picked	-14868
▁purple	-14869
▁rebell	-14870
▁render	-14871
▁rescue	-14872
▁rhythm	-14873
▁scroll	-14874
▁shades	-14875
▁silent	-14876
▁static	-14877
▁suprem	-14878
▁surely	-14879
▁talked	-14880
▁titled	-14881
▁trains	-14882
▁transm	-14883
▁wishes	-14884
November	-14885
aissance	-14886
angboche	-14887
archical	-14888
ellation	-14889
fficking	-14890
inosaurs	-14891
lamation	-14892
olescent	-14893
restrial	-14894
usterity	-14895
▁Animals	-14896
▁Aramaic	-14897
▁Chassid	-14898
▁Christi	-14899
▁Command	-14900
▁Conduct	-14901
▁Corinth	-14902
▁Culture	-14903
▁Ecology	-14904
▁Habitat	-14905
▁Highway	-14906
▁Humbold	-14907
▁Machine	-14908
▁Mencius	-14909
▁Mission	-14910
▁Present	-14911
▁Seattle	-14912
▁Somalia	-14913
▁Stories	-14914
▁Vermont	-14915
▁Whitney	-14916
▁abandon	-14917
▁abdomen	-14918
▁agnatic	-14919
▁airport	-14920
▁antagon	-14921
▁arthrop	-14922
▁broadly	-14923
▁captive	-14924
▁caution	-14925
[...]
